<unk>	0
<s>	0
</s>	0
▁d	-0
en	-1
▁c	-2
▁a	-3
▁de	-4
00	-5
an	-6
er	-7
▁p	-8
▁s	-9
os	-10
on	-11
ar	-12
or	-13
es	-14
''	-15
ta	-16
ci	-17
▁en	-18
▁l	-19
▁y	-20
▁m	-21
as	-22
un	-23
al	-24
in	-25
at	-26
re	-27
▁o	-28
ic	-29
▁00	-30
ue	-31
it	-32
▁f	-33
▁t	-34
▁un	-35
is	-36
ón	-37
ra	-38
▁(	-39
▁''	-40
om	-41
▁b	-42
el	-43
▁q	-44
▁*	-45
ro	-46
la	-47
▁con	-48
▁n	-49
ent	-50
▁es	-51
▁que	-52
▁su	-53
▁h	-54
▁0000	-55
ch	-56
▁v	-57
ia	-58
im	-59
eg	-60
ol	-61
▁ye	-62
▁g	-63
ción	-64
to	-65
ti	-66
▁re	-67
ix	-68
id	-69
▁una	-70
em	-71
il	-72
▁com	-73
ab	-74
ía	-75
io	-76
▁ch	-77
us	-78
ya	-79
▁se	-80
ant	-81
cia	-82
ran	-83
0000	-84
▁la	-85
te	-86
ob	-87
ica	-88
és	-89
▁os	-90
ici	-91
tr	-92
▁e	-93
ad	-94
▁r	-95
▁por	-96
lo	-97
ur	-98
tal	-99
▁lo	-100
án	-101
do	-102
am	-103
▁as	-104
▁par	-105
ag	-106
ir	-107
uer	-108
▁pro	-109
ca	-110
▁pr	-111
ig	-112
ul	-113
ato	-114
ct	-115
aix	-116
ico	-117
tas	-118
▁in	-119
▁an	-120
de	-121
▁ta	-122
▁cat	-123
oría	-124
'',	-125
).	-126
era	-127
▁categ	-128
▁al	-129
yo	-130
▁-	-131
idat	-132
▁categoría	-133
▁u	-134
iv	-135
▁suya	-136
ito	-137
ens	-138
▁k	-139
▁0	-140
▁hab	-141
ib	-142
),	-143
ell	-144
za	-145
ed	-146
''.	-147
▁como	-148
per	-149
lación	-150
le	-151
▁pob	-152
ment	-153
ap	-154
ons	-155
ist	-156
▁fran	-157
da	-158
ug	-159
▁per	-160
▁población	-161
et	-162
um	-163
res	-164
▁(0000	-165
ud	-166
qu	-167
ba	-168
▁cas	-169
encia	-170
▁000	-171
▁qu	-172
▁mar	-173
co	-174
if	-175
ter	-176
ient	-177
000	-178
▁no	-179
▁i	-180
▁esta	-181
ión	-182
als	-183
▁mun	-184
ma	-185
én	-186
▁z	-187
,00	-188
ub	-189
rag	-190
fici	-191
ana	-192
ier	-193
itu	-194
▁j	-195
vin	-196
ita	-197
ants	-198
▁ar	-199
arag	-200
tos	-201
▁im	-202
enci	-203
pe	-204
ara	-205
itos	-206
ien	-207
ista	-208
▁km	-209
▁me	-210
▁arag	-211
▁pa	-212
ich	-213
▁naix	-214
▁ter	-215
iz	-216
▁des	-217
ín	-218
mi	-219
oron	-220
ors	-221
▁franc	-222
icip	-223
▁provin	-224
▁for	-225
rit	-226
▁to	-227
and	-228
ill	-229
av	-230
▁municip	-231
ac	-232
ach	-233
emp	-234
ers	-235
▁po	-236
tar	-237
mo	-238
ero	-239
▁or	-240
▁provincia	-241
▁super	-242
ina	-243
ec	-244
th	-245
onés	-246
go	-247
par	-248
▁si	-249
ió	-250
itants	-251
▁cons	-252
▁sob	-253
tre	-254
▁0000,	-255
va	-256
ando	-257
▁son	-258
▁ma	-259
▁habitants	-260
▁den	-261
bre	-262
ut	-263
una	-264
ona	-265
ga	-266
ios	-267
▁le	-268
uen	-269
ie	-270
ene	-271
que	-272
pan	-273
uc	-274
▁situ	-275
▁esti	-276
.000	-277
▁superfici	-278
▁suyo	-279
▁ca	-280
▁x	-281
▁val	-282
▁superficie	-283
mién	-284
ues	-285
▁ex	-286
▁los	-287
aci	-288
▁mon	-289
vi	-290
po	-291
▁tamién	-292
▁0000.	-293
▁francés	-294
ino	-295
ás	-296
cal	-297
▁ci	-298
den	-299
▁car	-300
▁"	-301
▁tra	-302
▁tro	-303
▁w	-304
icos	-305
ura	-306
▁ha	-307
▁oc	-308
▁cin	-309
▁dens	-310
las	-311
ans	-312
▁is	-313
▁densidat	-314
km	-315
ís	-316
2.	-317
▁ciud	-318
imp	-319
▁muer	-320
▁municipio	-321
tes	-322
▁prim	-323
tros	-324
0000).	-325
▁**	-326
se	-327
alment	-328
▁(''	-329
▁am	-330
yos	-331
▁pre	-332
ital	-333
▁dende	-334
▁ciudat	-335
▁naixencia	-336
▁pue	-337
▁cap	-338
ri	-339
ctor	-340
▁00,00	-341
▁mas	-342
gra	-343
▁bi	-344
▁estato	-345
▁nor	-346
▁nom	-347
eb	-348
por	-349
▁estió	-350
ata	-351
los	-352
▁el	-353
pos	-354
▁esc	-355
▁pres	-356
▁cam	-357
▁ro	-358
ing	-359
▁pl	-360
▁dis	-361
▁sobre	-362
esta	-363
▁entre	-364
▁man	-365
anta	-366
ire	-367
ada	-368
▁mu	-369
ru	-370
olo	-371
▁seg	-372
▁rech	-373
arca	-374
ras	-375
end	-376
atos	-377
cions	-378
▁0000:	-379
▁sieg	-380
uel	-381
▁cast	-382
ano	-383
ella	-384
tra	-385
▁ser	-386
ion	-387
▁enc	-388
▁las	-389
▁occi	-390
▁ac	-391
▁pol	-392
▁rom	-393
▁mes	-394
▁aragonés	-395
vo	-396
ial	-397
▁sant	-398
ués	-399
▁gran	-400
od	-401
esa	-402
tan	-403
▁castell	-404
ars	-405
▁rep	-406
graf	-407
min	-408
iga	-409
pa	-410
▁fa	-411
▁dica	-412
▁bar	-413
▁sieglo	-414
▁comarca	-415
▁inter	-416
▁fer	-417
▁part	-418
cas	-419
▁gu	-420
tro	-421
oix	-422
no	-423
ritor	-424
naix	-425
ord	-426
px	-427
▁imach	-428
ense	-429
icas	-430
▁parte	-431
all	-432
iento	-433
▁imachen	-434
▁capital	-435
▁yera	-436
▁tien	-437
ias	-438
▁so	-439
▁*''	-440
▁baix	-441
▁cant	-442
arra	-443
▁ad	-444
impués	-445
▁catal	-446
ces	-447
▁ra	-448
arago	-449
con	-450
▁dimpués	-451
enta	-452
ctu	-453
▁luen	-454
▁co	-455
jp	-456
▁bell	-457
▁segun	-458
▁ed	-459
pl	-460
▁on	-461
▁est	-462
au	-463
be	-464
:0000	-465
▁del	-466
jpg	-467
ex	-468
ello	-469
unit	-470
▁tor	-471
ard	-472
aragoza	-473
▁dos	-474
▁ve	-475
▁comun	-476
▁quan	-477
ins	-478
▁rechión	-479
▁muere	-480
▁pero	-481
aragón	-482
lu	-483
ener	-484
oc	-485
onal	-486
▁col	-487
▁alem	-488
emb	-489
▁lug	-490
▁cal	-491
ne	-492
unitense	-493
mento	-494
pon	-495
▁espan	-496
▁med	-497
▁0.000	-498
▁estatounitense	-499
ban	-500
▁cor	-501
▁(0000),	-502
ents	-503
man	-504
ena	-505
ida	-506
gl	-507
iza	-508
he	-509
▁zaragoza	-510
ce	-511
encias	-512
inas	-513
eix	-514
ros	-515
tric	-516
ubl	-517
▁casti	-518
▁parti	-519
▁sud	-520
▁encara	-521
ío	-522
▁más	-523
car	-524
▁situato	-525
tor	-526
▁mus	-527
▁cantón	-528
'')	-529
▁dif	-530
▁conoix	-531
gu	-532
▁pas	-533
▁ti	-534
▁país	-535
▁guer	-536
▁(0000)	-537
uro	-538
▁forma	-539
▁comuna	-540
ición	-541
gos	-542
▁occit	-543
▁cre	-544
▁local	-545
yas	-546
▁ver	-547
▁fue	-548
▁lat	-549
este	-550
ber	-551
▁res	-552
▁sin	-553
iles	-554
▁ix	-555
▁pap	-556
illa	-557
▁can	-558
▁prenci	-559
du	-560
▁nombre	-561
▁norte	-562
parta	-563
▁nue	-564
les	-565
ular	-566
▁reino	-567
peci	-568
-0000	-569
▁sal	-570
ismo	-571
na	-572
▁unitos	-573
▁polit	-574
▁ofici	-575
▁distric	-576
▁ital	-577
ador	-578
▁(†	-579
▁(0000,	-580
ativ	-581
▁0,00	-582
umb	-583
▁río	-584
anyo	-585
aria	-586
irene	-587
▁departa	-588
ris	-589
▁troba	-590
che	-591
tz	-592
▁prencip	-593
▁(†0000).	-594
▁fe	-595
▁ob	-596
▁castellán	-597
▁cent	-598
▁francia	-599
▁may	-600
pre	-601
istor	-602
▁pos	-603
▁departamento	-604
est	-605
fer	-606
▁guerra	-607
▁districto	-608
▁cos	-609
ha	-610
itas	-611
▁mient	-612
▁mill	-613
oma	-614
cos	-615
uga	-616
▁termin	-617
▁aut	-618
.0000).	-619
▁ba	-620
leg	-621
ilesia	-622
▁mientres	-623
ton	-624
▁:	-625
ater	-626
cha	-627
zo	-628
ora	-629
▁san	-630
2,	-631
▁anyos	-632
ireneus	-633
▁form	-634
ip	-635
istas	-636
▁primer	-637
▁art	-638
esc	-639
▁chun	-640
ierra	-641
▁anti	-642
▁especi	-643
▁metros	-644
anti	-645
▁situata	-646
the	-647
bol	-648
tur	-649
▁mo	-650
perio	-651
▁papel	-652
ron	-653
▁fil	-654
▁mor	-655
tiv	-656
▁difer	-657
▁lugar	-658
rib	-659
oloch	-660
gas	-661
taria	-662
itar	-663
ver	-664
▁rei	-665
ua	-666
thumb	-667
▁men	-668
▁sig	-669
▁localidat	-670
ián	-671
bl	-672
ior	-673
▁and	-674
▁aragon	-675
▁estar	-676
▁lu	-677
ías	-678
▁cl	-679
▁div	-680
ven	-681
eta	-682
▁ber	-683
cin	-684
▁ran	-685
bo	-686
land	-687
for	-688
ions	-689
▁pal	-690
der	-691
naixencias	-692
▁comunidat	-693
▁ii	-694
▁atros	-695
gan	-696
ario	-697
▁vi	-698
cip	-699
empleg	-700
embre	-701
▁histor	-702
titu	-703
▁dist	-704
▁ne	-705
▁ilesia	-706
▁catalán	-707
▁gra	-708
emato	-709
imo	-710
|000	-711
▁cer	-712
▁actu	-713
▁he	-714
▁tres	-715
▁bel	-716
▁sub	-717
▁cinemato	-718
▁cinematograf	-719
▁hue	-720
ve	-721
iste	-722
ancia	-723
osa	-724
▁nav	-725
ustr	-726
▁cab	-727
igh	-728
ublica	-729
und	-730
tin	-731
▁the	-732
▁baixo	-733
tras	-734
tru	-735
▁cul	-736
▁#	-737
▁«	-738
ubre	-739
▁lib	-740
aba	-741
▁bo	-742
gar	-743
mat	-744
port	-745
▁naixito	-746
▁ind	-747
▁bas	-748
▁ab	-749
▁ya	-750
▁bal	-751
ari	-752
▁of	-753
▁fin	-754
▁rus	-755
iter	-756
val	-757
anya	-758
▁aragón	-759
das	-760
▁oficialment	-761
▁suyos	-762
▁territor	-763
▁mi	-764
▁puet	-765
mos	-766
ctubre	-767
sa	-768
ine	-769
▁luenga	-770
altaria	-771
▁at	-772
▁jo	-773
tivo	-774
▁suyas	-775
▁alemán	-776
onia	-777
▁gar	-778
mio	-779
iu	-780
▁pen	-781
▁partito	-782
mon	-783
ifica	-784
lan	-785
▁dire	-786
acional	-787
▁més	-788
▁sa	-789
amb	-790
aragonés	-791
rar	-792
ania	-793
▁meyo	-794
▁escritor	-795
ema	-796
esca	-797
▁primera	-798
ight	-799
uan	-800
aguer	-801
▁mel	-802
ral	-803
▁rec	-804
octubre	-805
▁reci	-806
▁latín	-807
▁castiella	-808
▁em	-809
ioron	-810
▁estatos	-811
▁fan	-812
▁imperio	-813
▁politico	-814
ueste	-815
ichen	-816
▁sol	-817
ren	-818
▁prop	-819
▁veg	-820
▁serv	-821
ril	-822
duc	-823
▁deb	-824
com	-825
adas	-826
ge	-827
ula	-828
bar	-829
ement	-830
▁distancia	-831
mar	-832
endo	-833
▁muga	-834
naixitos	-835
▁zaguer	-836
erci	-837
cion	-838
▁gru	-839
▁bells	-840
ye	-841
▁chener	-842
▁roman	-843
indo	-844
▁angl	-845
▁te	-846
▁occitana	-847
▁ol	-848
cel	-849
▁dec	-850
rans	-851
iclo	-852
red	-853
ural	-854
iental	-855
ten	-856
▁santa	-857
▁consid	-858
des	-859
icial	-860
▁et	-861
ego	-862
▁chud	-863
▁auton	-864
▁pi	-865
ork	-866
▁us	-867
ola	-868
▁enta	-869
qui	-870
▁espanya	-871
▁mad	-872
▁che	-873
▁desta	-874
▁ley	-875
▁pues	-876
▁veiga	-877
▁asinas	-878
▁chin	-879
▁tot	-880
son	-881
isión	-882
▁fu	-883
▁millor	-884
me	-885
▁gal	-886
▁qual	-887
▁faci	-888
,0	-889
▁xvi	-890
uertes	-891
▁cel	-892
ecto	-893
▁mesmo	-894
▁uesca	-895
eran	-896
cta	-897
▁mayor	-898
cis	-899
estatos	-900
▁vas	-901
▁brit	-902
▁topon	-903
▁ista	-904
▁pleg	-905
▁canta	-906
▁fon	-907
▁af	-908
▁contra	-909
pro	-910
dental	-911
▁nueva	-912
▁fam	-913
",	-914
▁comp	-915
▁repres	-916
▁feb	-917
omin	-918
▁''-	-919
so	-920
bal	-921
int	-922
pol	-923
▁rib	-924
ament	-925
nia	-926
▁actor	-927
▁("	-928
ph	-929
ian	-930
▁der	-931
▁mont	-932
▁york	-933
rim	-934
▁iste	-935
vol	-936
esti	-937
▁britan	-938
ulio	-939
muertes	-940
▁luengas	-941
can	-942
-00	-943
az	-944
▁mat	-945
ctors	-946
▁chudicial	-947
▁(0000).	-948
▁ins	-949
▁produ	-950
▁municipal	-951
eses	-952
pend	-953
itor	-954
▁er	-955
▁cla	-956
▁trans	-957
ctos	-958
▁*0000	-959
ización	-960
mas	-961
▁inf	-962
▁autonoma	-963
alto	-964
▁ten	-965
▁euro	-966
pres	-967
dat	-968
▁tre	-969
▁her	-970
▁soci	-971
ide	-972
▁mal	-973
▁pu	-974
right	-975
▁perio	-976
▁cara	-977
▁cu	-978
▁:''	-979
▁tiemp	-980
chen	-981
actu	-982
▁ib	-983
▁cuen	-984
''),	-985
imen	-986
▁num	-987
▁mer	-988
ii	-989
▁import	-990
▁seguntes	-991
ident	-992
han	-993
vel	-994
▁empleg	-995
▁oriental	-996
ley	-997
▁segunda	-998
▁interpre	-999
▁premio	-1000
ún	-1001
dici	-1002
▁estando	-1003
▁tur	-1004
ull	-1005
▁conc	-1006
▁nat	-1007
▁diferents	-1008
▁clas	-1009
▁–	-1010
panya	-1011
▁mod	-1012
actual	-1013
▁italián	-1014
rom	-1015
pas	-1016
igo	-1017
▁fun	-1018
▁jos	-1019
eras	-1020
▁recib	-1021
▁inc	-1022
ira	-1023
edat	-1024
▁ben	-1025
ll	-1026
▁republica	-1027
of	-1028
ierno	-1029
▁cris	-1030
▁chulio	-1031
▁00.000	-1032
▁reg	-1033
▁occidental	-1034
triz	-1035
▁bur	-1036
yal	-1037
▁000,00	-1038
tura	-1039
elo	-1040
▁pireneus	-1041
rero	-1042
▁cheneral	-1043
rera	-1044
▁*0000:	-1045
lad	-1046
ustria	-1047
▁conch	-1048
imiento	-1049
▁muerto	-1050
uela	-1051
▁director	-1052
orichen	-1053
▁chen	-1054
▁tan	-1055
▁medie	-1056
▁eix	-1057
ot	-1058
▁articlo	-1059
▁aragonesa	-1060
▁lon	-1061
ez	-1062
ques	-1063
▁qui	-1064
▁min	-1065
ivers	-1066
▁rel	-1067
▁seti	-1068
▁sierra	-1069
men	-1070
▁prin	-1071
▁nacional	-1072
'':	-1073
día	-1074
▁servir	-1075
ck	-1076
▁interpreta	-1077
▁fo	-1078
▁pat	-1079
▁sign	-1080
▁tene	-1081
▁han	-1082
bur	-1083
ric	-1084
art	-1085
▁atras	-1086
▁di	-1087
bas	-1088
▁heba	-1089
cintas	-1090
▁compos	-1091
ite	-1092
tol	-1093
▁cinematografico	-1094
aban	-1095
br	-1096
olochía	-1097
▁0000-0000	-1098
▁dre	-1099
▁pueb	-1100
▁pop	-1101
lor	-1102
unto	-1103
▁port	-1104
▁br	-1105
▁sist	-1106
▁alto	-1107
eu	-1108
dor	-1109
▁doc	-1110
▁mayo	-1111
▁teruel	-1112
▁occitán	-1113
▁este	-1114
iva	-1115
▁tienen	-1116
onas	-1117
inación	-1118
volu	-1119
ría	-1120
▁esde	-1121
▁yeran	-1122
talla	-1123
▁muitos	-1124
celona	-1125
▁leyón	-1126
▁pin	-1127
▁eixemp	-1128
▁fuer	-1129
▁ref	-1130
depend	-1131
iana	-1132
dial	-1133
pireneus	-1134
up	-1135
▁cine	-1136
▁marzo	-1137
▁sem	-1138
col	-1139
▁isla	-1140
ilia	-1141
▁hum	-1142
vas	-1143
▁tex	-1144
ación	-1145
".	-1146
▁sar	-1147
entre	-1148
▁mundo	-1149
idatz	-1150
ache	-1151
▁chinero	-1152
▁gri	-1153
▁du	-1154
agos	-1155
▁barcelona	-1156
▁meyodía	-1157
cer	-1158
ugua	-1159
ional	-1160
alem	-1161
▁cur	-1162
▁esp	-1163
hn	-1164
▁ag	-1165
▁vari	-1166
▁grupo	-1167
aviento	-1168
fa	-1169
abril	-1170
yer	-1171
▁historia	-1172
ients	-1173
ual	-1174
alta	-1175
▁organ	-1176
▁(0	-1177
ik	-1178
▁pueden	-1179
▁mol	-1180
oro	-1181
▁bellas	-1182
luy	-1183
▁febrero	-1184
ific	-1185
▁centro	-1186
▁totz	-1187
ea	-1188
'').	-1189
atura	-1190
cter	-1191
lar	-1192
▁plan	-1193
yol	-1194
▁univers	-1195
▁do	-1196
▁princip	-1197
ind	-1198
▁da	-1199
cil	-1200
▁hon	-1201
▁territorio	-1202
▁setiembre	-1203
cho	-1204
▁chunio	-1205
-0	-1206
via	-1207
▁vasco	-1208
iel	-1209
▁melitar	-1210
▁francesa	-1211
adors	-1212
▁chunto	-1213
▁tracta	-1214
agosto	-1215
tín	-1216
order	-1217
▁gub	-1218
▁real	-1219
▁viv	-1220
▁vill	-1221
▁redo	-1222
imenos	-1223
▁establ	-1224
angl	-1225
▁char	-1226
▁intern	-1227
ifor	-1228
▁pla	-1229
icament	-1230
▁independ	-1231
▁orich	-1232
rarbe	-1233
▁puesto	-1234
▁navarra	-1235
abe	-1236
gel	-1237
▁manimenos	-1238
▁dan	-1239
▁mundial	-1240
ima	-1241
▁liter	-1242
unya	-1243
▁nomás	-1244
cu	-1245
ueva	-1246
▁muit	-1247
dos	-1248
ido	-1249
ester	-1250
espanya	-1251
olas	-1252
▁ara	-1253
▁camp	-1254
▁novi	-1255
anda	-1256
▁tar	-1257
▁dir	-1258
▁feito	-1259
▁britanico	-1260
jo	-1261
▁fació	-1262
▁temp	-1263
▁chuan	-1264
ts	-1265
ho	-1266
▁chico	-1267
▁refer	-1268
uz	-1269
▁au	-1270
aterra	-1271
▁0000/	-1272
▁vic	-1273
▁dial	-1274
grafía	-1275
▁vo	-1276
▁villa	-1277
▁pe	-1278
eno	-1279
rat	-1280
▁países	-1281
▁anglés	-1282
▁tradici	-1283
▁fis	-1284
▁cher	-1285
▁parís	-1286
▁actualment	-1287
▁ir	-1288
▁portug	-1289
▁unito	-1290
▁contin	-1291
zas	-1292
idi	-1293
▁diz	-1294
▁maría	-1295
▁noviembre	-1296
▁sistema	-1297
aro	-1298
▁central	-1299
icio	-1300
her	-1301
agor	-1302
antiga	-1303
▁conser	-1304
▁>	-1305
actor	-1306
ja	-1307
▁deci	-1308
ka	-1309
▁castiello	-1310
▁conf	-1311
▁espanyol	-1312
ritors	-1313
ies	-1314
cias	-1315
▁ur	-1316
mata	-1317
▁nob	-1318
til	-1319
ismos	-1320
▁desc	-1321
▁cha	-1322
▁xii	-1323
▁xvii	-1324
▁lugars	-1325
ern	-1326
▁ala	-1327
tica	-1328
▁tierra	-1329
▁sent	-1330
quer	-1331
▁casa	-1332
ruz	-1333
▁caracter	-1334
▁sus	-1335
▁zona	-1336
▁natural	-1337
lada	-1338
▁president	-1339
ius	-1340
▁parola	-1341
▁batalla	-1342
▁fre	-1343
▁eixemplo	-1344
iba	-1345
imos	-1346
cep	-1347
▁0000)	-1348
fe	-1349
ires	-1350
▁chue	-1351
▁rela	-1352
▁tol	-1353
▁bor	-1354
▁carrera	-1355
cción	-1356
ko	-1357
etica	-1358
iar	-1359
▁sobrarbe	-1360
▁campo	-1361
▁medieval	-1362
iment	-1363
▁torn	-1364
af	-1365
▁li	-1366
▁sue	-1367
erica	-1368
▁crey	-1369
▁orichin	-1370
▁popular	-1371
▁remat	-1372
▁dirich	-1373
▁ge	-1374
apar	-1375
ry	-1376
▁lin	-1377
ials	-1378
▁gre	-1379
etro	-1380
▁sim	-1381
▁parla	-1382
escritors	-1383
ele	-1384
ercito	-1385
▁numero	-1386
quit	-1387
▁border	-1388
asi	-1389
bos	-1390
▁pren	-1391
▁recon	-1392
▁chir	-1393
▁trob	-1394
ifornia	-1395
▁tr	-1396
▁muito	-1397
▁rad	-1398
ate	-1399
uras	-1400
ativo	-1401
▁domin	-1402
▁olimp	-1403
▁desemb	-1404
ixo	-1405
italia	-1406
▁toponimo	-1407
▁formas	-1408
uta	-1409
▁def	-1410
▁usos	-1411
antos	-1412
▁representa	-1413
▁000.000	-1414
▁josé	-1415
uerto	-1416
▁cristi	-1417
▁seu	-1418
atas	-1419
lant	-1420
ang	-1421
ingü	-1422
▁important	-1423
bert	-1424
ep	-1425
ser	-1426
fo	-1427
▁be	-1428
▁teneba	-1429
▁familia	-1430
cor	-1431
▁división	-1432
op	-1433
▁/	-1434
arro	-1435
onom	-1436
▁orden	-1437
▁produc	-1438
▁román	-1439
atro	-1440
euro	-1441
cto	-1442
ivo	-1443
ude	-1444
▁sel	-1445
▁bien	-1446
▁cond	-1447
ativa	-1448
▁gall	-1449
▁neg	-1450
hib	-1451
ke	-1452
▁cinta	-1453
-000	-1454
▁john	-1455
acio	-1456
rica	-1457
tom	-1458
redol	-1459
▁mil	-1460
▁conoixito	-1461
cam	-1462
▁valencia	-1463
anas	-1464
▁catalunya	-1465
▁00,0	-1466
ont	-1467
▁costa	-1468
adal	-1469
▁dito	-1470
▁pod	-1471
▁suf	-1472
▁austria	-1473
hon	-1474
▁fab	-1475
▁grans	-1476
▁novel	-1477
▁gas	-1478
▁poder	-1479
▁obra	-1480
istico	-1481
▁baixa	-1482
▁alemanya	-1483
▁meya	-1484
cla	-1485
▁tiempo	-1486
▁0000/00	-1487
▁emper	-1488
istos	-1489
mit	-1490
▁sci	-1491
terior	-1492
umenta	-1493
▁mater	-1494
augua	-1495
eración	-1496
▁gan	-1497
igación	-1498
ctura	-1499
truc	-1500
▁int	-1501
▁***	-1502
▁dent	-1503
ean	-1504
▁muitas	-1505
▁quantos	-1506
tene	-1507
▁amás	-1508
▁ped	-1509
▁consider	-1510
▁valenci	-1511
xico	-1512
▁th	-1513
tiva	-1514
▁econ	-1515
ellas	-1516
▁dita	-1517
yola	-1518
▁anya	-1519
ilo	-1520
▁cultur	-1521
▁pra	-1522
chent	-1523
▁vol	-1524
actriz	-1525
▁pareix	-1526
▁present	-1527
▁ant	-1528
▁europe	-1529
aga	-1530
▁gubierno	-1531
▁econom	-1532
▁fern	-1533
▁coron	-1534
út	-1535
▁torre	-1536
▁nuc	-1537
▁fendo	-1538
ebro	-1539
atros	-1540
▁apar	-1541
pr	-1542
lio	-1543
▁mur	-1544
▁cuenca	-1545
arios	-1546
▁elec	-1547
ambigación	-1548
▁mos	-1549
▁estud	-1550
▁periodo	-1551
▁interpretatas	-1552
bn	-1553
trib	-1554
▁cada	-1555
▁club	-1556
▁proces	-1557
▁espanyola	-1558
desambigación	-1559
▁tal	-1560
útbol	-1561
▁escr	-1562
▁cantaire	-1563
▁travi	-1564
▁constru	-1565
cher	-1566
▁musica	-1567
▁chug	-1568
▁ruso	-1569
tat	-1570
ivil	-1571
▁pan	-1572
▁vin	-1573
▁á	-1574
ela	-1575
dres	-1576
▁les	-1577
▁evolu	-1578
▁pertene	-1579
ería	-1580
cl	-1581
zar	-1582
▁blan	-1583
▁carlos	-1584
ical	-1585
▁caso	-1586
▁fútbol	-1587
var	-1588
qü	-1589
▁lar	-1590
▁trebal	-1591
▁don	-1592
▁equ	-1593
▁montan	-1594
ientos	-1595
ki	-1596
▁iii	-1597
▁bos	-1598
"),	-1599
ly	-1600
▁cro	-1601
▁element	-1602
ado	-1603
▁edat	-1604
omb	-1605
▁buen	-1606
▁vis	-1607
▁(0000-0000	-1608
vent	-1609
▁prote	-1610
icar	-1611
▁charra	-1612
▁parolas	-1613
ible	-1614
▁mesma	-1615
▁roma	-1616
▁madrit	-1617
▁troban	-1618
▁traza	-1619
▁ribagor	-1620
iano	-1621
sen	-1622
▁len	-1623
▁significa	-1624
hab	-1625
usa	-1626
▁quasi	-1627
..	-1628
ced	-1629
▁aman	-1630
acions	-1631
▁miemb	-1632
▁especies	-1633
▁idi	-1634
forma	-1635
intro	-1636
ise	-1637
etra	-1638
▁mig	-1639
ente	-1640
▁cad	-1641
▁ga	-1642
▁isbn	-1643
▁poeta	-1644
eban	-1645
emos	-1646
▁siny	-1647
▁chuegos	-1648
california	-1649
▁arredol	-1650
▁gos	-1651
▁anim	-1652
▁social	-1653
▁ren	-1654
ze	-1655
ña	-1656
onso	-1657
nueva	-1658
sh	-1659
mios	-1660
ble	-1661
ille	-1662
▁chus	-1663
▁fillo	-1664
tera	-1665
ellos	-1666
▁traviés	-1667
▁feba	-1668
antigo	-1669
▁iv	-1670
▁va	-1671
orra	-1672
▁uno	-1673
tivos	-1674
▁denom	-1675
▁anque	-1676
etz	-1677
▁az	-1678
arn	-1679
▁**''	-1680
antes	-1681
▁vers	-1682
oria	-1683
▁ixo	-1684
ey	-1685
▁tener	-1686
tribu	-1687
▁fel	-1688
.''	-1689
ombre	-1690
alla	-1691
fran	-1692
guer	-1693
▁dic	-1694
▁fund	-1695
alemanya	-1696
mans	-1697
ologo	-1698
▁londres	-1699
▁nuevo	-1700
▁unión	-1701
▁lingü	-1702
▁productor	-1703
▁muerte	-1704
emas	-1705
ign	-1706
eros	-1707
▁prof	-1708
miento	-1709
▁exercito	-1710
▁mag	-1711
▁atra	-1712
ime	-1713
▁compositor	-1714
tu	-1715
▁perteneix	-1716
onio	-1717
wa	-1718
ampl	-1719
ique	-1720
▁ros	-1721
▁rum	-1722
▁bav	-1723
ús	-1724
mes	-1725
alb	-1726
▁cont	-1727
istica	-1728
▁francis	-1729
▁sab	-1730
▁martín	-1731
▁pun	-1732
▁relich	-1733
urs	-1734
▁puede	-1735
▁atlant	-1736
▁vien	-1737
nes	-1738
▁regular	-1739
vos	-1740
▁serb	-1741
▁chap	-1742
idas	-1743
▁olimpicos	-1744
istr	-1745
ionista	-1746
▁burgos	-1747
pen	-1748
▁anton	-1749
ítol	-1750
▁italia	-1751
utbol	-1752
▁debant	-1753
dors	-1754
quia	-1755
▁guadal	-1756
▁musul	-1757
▁bre	-1758
):	-1759
iam	-1760
▁bis	-1761
bra	-1762
▁penins	-1763
▁bol	-1764
▁emperador	-1765
▁territorios	-1766
▁institu	-1767
▁go	-1768
▁ho	-1769
▁publ	-1770
▁vir	-1771
▁alb	-1772
▁ban	-1773
▁balon	-1774
▁fr	-1775
▁garona	-1776
▁documenta	-1777
pes	-1778
pla	-1779
yó	-1780
▁cir	-1781
▁menos	-1782
aus	-1783
▁simp	-1784
▁cuer	-1785
▁quat	-1786
ys	-1787
▁guionista	-1788
osof	-1789
cul	-1790
dez	-1791
▁vida	-1792
▁chenero	-1793
▁premios	-1794
cio	-1795
lau	-1796
▁zonas	-1797
let	-1798
van	-1799
▁bran	-1800
els	-1801
encima	-1802
▁estre	-1803
▁textos	-1804
mor	-1805
▁ni	-1806
tant	-1807
▁civil	-1808
urgo	-1809
▁espor	-1810
cre	-1811
inos	-1812
▁alta	-1813
tals	-1814
▁mov	-1815
▁prou	-1816
▁tanto	-1817
cra	-1818
emat	-1819
▁destac	-1820
▁considera	-1821
pi	-1822
omen	-1823
▁0000-00	-1824
▁fed	-1825
▁recibió	-1826
iss	-1827
eral	-1828
uso	-1829
atra	-1830
▁gol	-1831
▁admin	-1832
quitania	-1833
▁subs	-1834
▁porque	-1835
cesto	-1836
onals	-1837
▁valencián	-1838
▁dra	-1839
▁dencima	-1840
▁tropas	-1841
chec	-1842
denya	-1843
aut	-1844
berg	-1845
▁tiempos	-1846
▁desembol	-1847
uns	-1848
▁ap	-1849
▁contro	-1850
▁sieglos	-1851
▁presenta	-1852
▁literatura	-1853
▁cambe	-1854
▁final	-1855
▁verbos	-1856
esp	-1857
▁pers	-1858
▁sovi	-1859
▁comerci	-1860
▁cultura	-1861
tación	-1862
▁valle	-1863
lin	-1864
reino	-1865
ega	-1866
▁xx	-1867
ler	-1868
rando	-1869
quier	-1870
▁cherman	-1871
▁bu	-1872
able	-1873
usta	-1874
canta	-1875
▁cintas	-1876
▁ciudatz	-1877
inato	-1878
▁cruz	-1879
tir	-1880
▁(00	-1881
▁geor	-1882
ria	-1883
ft	-1884
▁creya	-1885
ile	-1886
▁0.	-1887
▁ven	-1888
▁rusia	-1889
▁cerdenya	-1890
dic	-1891
▁ixe	-1892
▁gosa	-1893
▁qued	-1894
▁aug	-1895
▁antigo	-1896
▁equi	-1897
▁istos	-1898
▁emp	-1899
▁lis	-1900
▁celeb	-1901
esas	-1902
illo	-1903
omas	-1904
▁van	-1905
respon	-1906
▁baloncesto	-1907
▁griego	-1908
esterio	-1909
emia	-1910
▁islas	-1911
icios	-1912
▁constitu	-1913
arqu	-1914
▁xix	-1915
posición	-1916
▁peninsula	-1917
mal	-1918
ós	-1919
mita	-1920
ff	-1921
igu	-1922
escrib	-1923
▁nobel	-1924
▁conchunto	-1925
▁aus	-1926
icación	-1927
▁verbo	-1928
iors	-1929
eda	-1930
▁edif	-1931
▁pueblos	-1932
eya	-1933
eter	-1934
idos	-1935
▁alf	-1936
ierras	-1937
anglaterra	-1938
▁juan	-1939
▁polonia	-1940
▁tipo	-1941
▁oscar	-1942
▁pintor	-1943
").	-1944
alc	-1945
▁max	-1946
ila	-1947
▁mull	-1948
▁vene	-1949
eza	-1950
▁reyal	-1951
▁especie	-1952
▁reconoix	-1953
▁term	-1954
▁miguel	-1955
▁primers	-1956
▁correspon	-1957
▁flor	-1958
▁estioron	-1959
▁sur	-1960
iterran	-1961
edia	-1962
▁día	-1963
▁actual	-1964
▁perd	-1965
▁internacional	-1966
▁especial	-1967
▁desapar	-1968
▁big	-1969
▁liga	-1970
▁represent	-1971
europa	-1972
▁filosof	-1973
vién	-1974
▁resta	-1975
▁oficial	-1976
mb	-1977
ini	-1978
omo	-1979
alia	-1980
▁pola	-1981
ración	-1982
▁mug	-1983
landés	-1984
▁st	-1985
▁jean	-1986
▁sobén	-1987
▁prencipal	-1988
▁mic	-1989
▁estru	-1990
▁esdeven	-1991
mer	-1992
pal	-1993
▁ec	-1994
▁estilo	-1995
▁musico	-1996
cant	-1997
ranco	-1998
actors	-1999
▁period	-2000
▁construc	-2001
ves	-2002
▁apareix	-2003
uncia	-2004
aquitania	-2005
amos	-2006
ilar	-2007
▁andal	-2008
▁sac	-2009
▁jac	-2010
si	-2011
▁mac	-2012
▁europa	-2013
▁segundo	-2014
▁gr	-2015
▁mich	-2016
▁corona	-2017
▁idioma	-2018
▁redolada	-2019
aire	-2020
▁inv	-2021
▁rev	-2022
ham	-2023
▁tec	-2024
▁tiene	-2025
▁bro	-2026
▁remata	-2027
»,	-2028
uis	-2029
▁estau	-2030
▁influ	-2031
▁punto	-2032
▁politica	-2033
▁portugal	-2034
▁monesterio	-2035
▁quals	-2036
▁mancha	-2037
▁francisco	-2038
ball	-2039
▁mayoría	-2040
cera	-2041
tancia	-2042
▁color	-2043
▁común	-2044
▁biz	-2045
▁casos	-2046
▁cultural	-2047
leta	-2048
tres	-2049
di	-2050
▁profes	-2051
yn	-2052
reg	-2053
▁von	-2054
▁sufixo	-2055
▁antonio	-2056
char	-2057
villa	-2058
▁deix	-2059
▁denominación	-2060
ood	-2061
▁vegatas	-2062
▁sam	-2063
▁castellan	-2064
enas	-2065
tico	-2066
▁sch	-2067
▁italiana	-2068
▁ub	-2069
iello	-2070
ger	-2071
▁op	-2072
nos	-2073
▁exist	-2074
tato	-2075
▁grupos	-2076
▁trobar	-2077
estar	-2078
mentos	-2079
aso	-2080
▁fuoron	-2081
olit	-2082
▁deriv	-2083
▁ixa	-2084
(0000	-2085
▁unas	-2086
garo	-2087
▁prencipals	-2088
▁dio	-2089
▁conte	-2090
mand	-2091
▁har	-2092
▁otom	-2093
▁lab	-2094
garia	-2095
dar	-2096
ulars	-2097
▁novelista	-2098
▁importants	-2099
▁sen	-2100
▁dim	-2101
▁catol	-2102
uerdo	-2103
▁creix	-2104
▁electr	-2105
gru	-2106
iban	-2107
don	-2108
▁mediterran	-2109
st	-2110
▁bul	-2111
▁hor	-2112
altos	-2113
▁ste	-2114
▁segu	-2115
▁will	-2116
▁tempor	-2117
▁presencia	-2118
▁desp	-2119
▁primeras	-2120
mán	-2121
▁''"	-2122
uestra	-2123
ér	-2124
ice	-2125
▁cub	-2126
▁ribera	-2127
duci	-2128
lex	-2129
olog	-2130
▁actriz	-2131
▁robert	-2132
aman	-2133
▁garra	-2134
▁xviii	-2135
mun	-2136
▁hi	-2137
▁tecn	-2138
▁respe	-2139
▁editor	-2140
...	-2141
edra	-2142
▁hen	-2143
leyonés	-2144
▁publica	-2145
ome	-2146
san	-2147
▁é	-2148
▁0000).	-2149
▁puestos	-2150
zal	-2151
▁cr	-2152
▁defin	-2153
▁lengu	-2154
mus	-2155
▁parab	-2156
ames	-2157
ni	-2158
vez	-2159
▁sil	-2160
burgo	-2161
▁ell	-2162
▁lan	-2163
checto	-2164
ator	-2165
ducción	-2166
▁dreita	-2167
▁divid	-2168
▁veyer	-2169
▁suc	-2170
med	-2171
aixo	-2172
allo	-2173
▁pron	-2174
▁cinco	-2175
je	-2176
bor	-2177
▁dom	-2178
arr	-2179
vals	-2180
▁dici	-2181
imperio	-2182
▁produci	-2183
▁administr	-2184
▁plana	-2185
▁ribagorza	-2186
▁demo	-2187
▁esla	-2188
trato	-2189
▁quim	-2190
▁universidat	-2191
ían	-2192
▁dav	-2193
▁saint	-2194
▁edición	-2195
▁sigu	-2196
itz	-2197
ández	-2198
▁resul	-2199
")	-2200
tidat	-2201
edo	-2202
poca	-2203
sch	-2204
cid	-2205
▁formato	-2206
▁hol	-2207
▁partir	-2208
cantaires	-2209
▁animals	-2210
iella	-2211
alf	-2212
eric	-2213
istro	-2214
▁angel	-2215
)''.	-2216
▁bra	-2217
etas	-2218
amiento	-2219
unta	-2220
▁conoixita	-2221
▁emb	-2222
chica	-2223
▁cord	-2224
bres	-2225
gres	-2226
ensa	-2227
▁conta	-2228
▁conserva	-2229
arraz	-2230
hi	-2231
izar	-2232
ones	-2233
▁poco	-2234
gol	-2235
premio	-2236
lib	-2237
íos	-2238
gría	-2239
arias	-2240
parte	-2241
▁cho	-2242
▁far	-2243
▁quantas	-2244
ama	-2245
lato	-2246
▁ocup	-2247
ale	-2248
chel	-2249
▁comb	-2250
▁mant	-2251
▁quatre	-2252
▁qualques	-2253
▁na	-2254
▁paul	-2255
▁fernando	-2256
isa	-2257
cián	-2258
empre	-2259
itars	-2260
histor	-2261
uas	-2262
▁din	-2263
▁tom	-2264
▁colla	-2265
ure	-2266
pación	-2267
▁victor	-2268
ciona	-2269
ifonso	-2270
▁destacar	-2271
▁municipios	-2272
▁sola	-2273
▁autor	-2274
▁mit	-2275
▁cheo	-2276
▁chod	-2277
▁0000),	-2278
0.	-2279
ches	-2280
emper	-2281
▁referencia	-2282
istán	-2283
▁conv	-2284
▁atlanticos	-2285
▁dar	-2286
▁habió	-2287
▁elementos	-2288
ificación	-2289
▁vii	-2290
▁títol	-2291
▁tradicional	-2292
▁ches	-2293
▁casas	-2294
▁tercera	-2295
▁propia	-2296
tein	-2297
ès	-2298
▁manuel	-2299
one	-2300
▁000.	-2301
▁orichinal	-2302
izato	-2303
▁propi	-2304
▁00.	-2305
ixa	-2306
yar	-2307
inter	-2308
▁gers	-2309
▁ixas	-2310
▁pobla	-2311
▁escrib	-2312
casti	-2313
actualidat	-2314
icions	-2315
isti	-2316
00.	-2317
oso	-2318
amplona	-2319
▁bizant	-2320
▁bigorra	-2321
▁aragoneses	-2322
rip	-2323
▁0,0	-2324
tens	-2325
arrazín	-2326
we	-2327
▁=	-2328
▁proceso	-2329
ça	-2330
ner	-2331
unas	-2332
▁00%	-2333
▁particip	-2334
ár	-2335
ago	-2336
▁xv	-2337
chia	-2338
mont	-2339
polit	-2340
vis	-2341
▁his	-2342
chía	-2343
▁dios	-2344
gen	-2345
ese	-2346
▁inclu	-2347
▁posición	-2348
▁desapareix	-2349
are	-2350
▁turqu	-2351
isla	-2352
▁santo	-2353
ians	-2354
▁mey	-2355
clo	-2356
▁anyo	-2357
▁person	-2358
▁il	-2359
▁puerto	-2360
▁pamplona	-2361
chip	-2362
▁china	-2363
▁imper	-2364
▁tercer	-2365
▁millons	-2366
▁siempre	-2367
hue	-2368
uca	-2369
unci	-2370
▁total	-2371
▁artistico	-2372
usia	-2373
▁salv	-2374
ectos	-2375
▁mexico	-2376
▁cinematografica	-2377
▁vall	-2378
▁amaneix	-2379
▁fem	-2380
nas	-2381
▁tras	-2382
▁linia	-2383
▁condato	-2384
▁relación	-2385
▁all	-2386
▁xiii	-2387
har	-2388
▁neer	-2389
▁rich	-2390
ilidat	-2391
▁morió	-2392
▁vegata	-2393
▁sax	-2394
estilo	-2395
'';	-2396
▁leg	-2397
▁rod	-2398
▁uns	-2399
▁pedro	-2400
▁ig	-2401
).''	-2402
esco	-2403
▁arabe	-2404
▁pueblo	-2405
sant	-2406
▁george	-2407
▁evolución	-2408
ks	-2409
tion	-2410
▁chaime	-2411
▁tractato	-2412
ento	-2413
▁chur	-2414
ección	-2415
provin	-2416
▁palacio	-2417
▁za	-2418
▁rio	-2419
▁epoca	-2420
▁naixita	-2421
rid	-2422
pin	-2423
▁pract	-2424
▁partic	-2425
▁dialecto	-2426
alo	-2427
urals	-2428
▁futbol	-2429
▁romanico	-2430
umen	-2431
ulas	-2432
▁cosa	-2433
▁parro	-2434
▁signific	-2435
▁colon	-2436
astur	-2437
▁amán	-2438
▁serie	-2439
▁canto	-2440
▁cuenta	-2441
▁anglaterra	-2442
argo	-2443
▁construcción	-2444
anía	-2445
▁pon	-2446
▁editorial	-2447
mel	-2448
tividat	-2449
▁toponimos	-2450
▁independencia	-2451
rez	-2452
demb	-2453
'0	-2454
▁sir	-2455
isticas	-2456
rich	-2457
▁catalana	-2458
▁fig	-2459
▁clam	-2460
▁tele	-2461
ueltas	-2462
▁+	-2463
yen	-2464
itivo	-2465
▁(000	-2466
▁dirichita	-2467
ns	-2468
tanya	-2469
▁obras	-2470
▁independient	-2471
gue	-2472
lla	-2473
-0.	-2474
oba	-2475
zaga	-2476
▁docu	-2477
ala	-2478
▁decl	-2479
▁esca	-2480
▁james	-2481
▁antiga	-2482
ipe	-2483
tran	-2484
▁chent	-2485
▁tenió	-2486
ast	-2487
uego	-2488
▁variedat	-2489
▁relacion	-2490
▁lor	-2491
ierre	-2492
uch	-2493
ung	-2494
▁fuent	-2495
▁libro	-2496
▁despob	-2497
▁sustitu	-2498
▁activo	-2499
▁sep	-2500
▁texto	-2501
anos	-2502
dica	-2503
▁gosan	-2504
▁tresc	-2505
ney	-2506
▁esf	-2507
aches	-2508
▁vico	-2509
▁impor	-2510
▁superior	-2511
ui	-2512
▁dramat	-2513
▁got	-2514
iro	-2515
enda	-2516
▁cabo	-2517
▁movimiento	-2518
▁bras	-2519
▁gara	-2520
quiesta	-2521
gon	-2522
igos	-2523
▁romana	-2524
tt	-2525
món	-2526
▁ocu	-2527
▁base	-2528
▁angeles	-2529
▁canad	-2530
▁habita	-2531
anglés	-2532
▁teneban	-2533
fr	-2534
burg	-2535
▁freqü	-2536
▁(0000-0000)	-2537
|''	-2538
emplega	-2539
▁tierras	-2540
eba	-2541
▁arab	-2542
▁astur	-2543
▁caball	-2544
▁anyadas	-2545
ward	-2546
▁lig	-2547
▁nap	-2548
▁garc	-2549
▁xi	-2550
anza	-2551
▁decir	-2552
rimonio	-2553
▁musulmans	-2554
▁menci	-2555
provincia	-2556
▁ue	-2557
enen	-2558
▁env	-2559
▁etn	-2560
▁secil	-2561
▁cuerpo	-2562
dis	-2563
▁viena	-2564
formación	-2565
▁ru	-2566
arte	-2567
ford	-2568
▁pau	-2569
▁orto	-2570
▁orichen	-2571
mad	-2572
cons	-2573
▁000,	-2574
▁bosnia	-2575
wn	-2576
usión	-2577
▁luis	-2578
mu	-2579
uelo	-2580
▁ph	-2581
▁nuclio	-2582
▁matemat	-2583
occi	-2584
▁william	-2585
▁edificio	-2586
▁istas	-2587
▁baixos	-2588
bro	-2589
▁ep	-2590
rato	-2591
▁ade	-2592
achara	-2593
▁galligo	-2594
▁miembro	-2595
▁mans	-2596
▁cinca	-2597
iera	-2598
▁biarn	-2599
▁margu	-2600
ng	-2601
▁via	-2602
▁deriva	-2603
▁tip	-2604
▁espa	-2605
▁papa	-2606
▁(0.000	-2607
▁dialectos	-2608
uera	-2609
▁estude	-2610
▁muller	-2611
▁medievals	-2612
net	-2613
▁micro	-2614
▁tolosa	-2615
china	-2616
▁metro	-2617
▁franco	-2618
albarrazín	-2619
ixe	-2620
▁puer	-2621
▁menor	-2622
▁revolu	-2623
▁0000-0000.	-2624
ky	-2625
▁metal	-2626
'00	-2627
gre	-2628
▁gl	-2629
▁bat	-2630
▁chuga	-2631
▁bon	-2632
▁auto	-2633
▁ríos	-2634
▁antis	-2635
▁orientals	-2636
tif	-2637
▁equipe	-2638
historia	-2639
▁camb	-2640
▁pai	-2641
estato	-2642
verb	-2643
▁bella	-2644
▁sovietica	-2645
organ	-2646
ges	-2647
qués	-2648
antis	-2649
▁zaguers	-2650
▁sh	-2651
▁ide	-2652
▁pot	-2653
orr	-2654
▁yo	-2655
▁zam	-2656
aración	-2657
▁charles	-2658
alcuerdo	-2659
▁dreito	-2660
arc	-2661
uello	-2662
▁ermita	-2663
▁barranco	-2664
▁concep	-2665
ucía	-2666
puerto	-2667
▁parque	-2668
▁concello	-2669
ase	-2670
▁mand	-2671
archent	-2672
▁rechions	-2673
elle	-2674
▁"''	-2675
▁ferr	-2676
▁prencipió	-2677
▁provincias	-2678
tel	-2679
uya	-2680
casa	-2681
▁hid	-2682
arcas	-2683
ender	-2684
nombre	-2685
onalment	-2686
▁formación	-2687
▁materials	-2688
▁guadalachara	-2689
/''	-2690
▁die	-2691
▁ele	-2692
▁expl	-2693
age	-2694
▁bern	-2695
▁iberica	-2696
landa	-2697
▁esco	-2698
▁filosofo	-2699
ick	-2700
▁pir	-2701
▁compl	-2702
▁refir	-2703
▁bavera	-2704
▁fisico	-2705
▁destaca	-2706
▁distribu	-2707
kh	-2708
urt	-2709
rique	-2710
ativos	-2711
▁heban	-2712
ped	-2713
ival	-2714
="	-2715
illas	-2716
▁divers	-2717
▁hel	-2718
▁qualsi	-2719
izo	-2720
▁atro	-2721
▁merid	-2722
sur	-2723
icia	-2724
▁alifonso	-2725
▁planta	-2726
cr	-2727
▁trib	-2728
teriors	-2729
inast	-2730
▁adintro	-2731
cial	-2732
▁alde	-2733
▁haber	-2734
▁penya	-2735
egu	-2736
idad	-2737
rata	-2738
ux	-2739
deba	-2740
rada	-2741
▁duc	-2742
▁new	-2743
▁esle	-2744
▁estr	-2745
▁scient	-2746
▁toledo	-2747
▁sindemb	-2748
li	-2749
cap	-2750
▁we	-2751
▁alavez	-2752
▁sindembargo	-2753
yd	-2754
ates	-2755
cent	-2756
ierto	-2757
▁ciudad	-2758
▁existe	-2759
▁treballo	-2760
▁liber	-2761
ker	-2762
lig	-2763
▁band	-2764
▁propio	-2765
▁antes	-2766
▁plaza	-2767
▁importancia	-2768
eo	-2769
ademia	-2770
pols	-2771
▁wil	-2772
ellón	-2773
fecto	-2774
▁presonas	-2775
▁romances	-2776
▁«''	-2777
▁prob	-2778
lement	-2779
▁piedra	-2780
▁propiedat	-2781
udo	-2782
como	-2783
▁trad	-2784
ardo	-2785
▁suiza	-2786
▁brasil	-2787
▁encluy	-2788
▁sudeste	-2789
▁relichios	-2790
icato	-2791
trés	-2792
wood	-2793
zata	-2794
topon	-2795
▁<	-2796
ael	-2797
peti	-2798
puta	-2799
▁fru	-2800
hol	-2801
▁amb	-2802
porta	-2803
▁estructura	-2804
▁futbolista	-2805
▁mediterrania	-2806
▁ná	-2807
roman	-2808
▁estudios	-2809
▁chaca	-2810
▁totas	-2811
▁xiv	-2812
erico	-2813
sol	-2814
▁pel	-2815
▁apro	-2816
▁ucra	-2817
bastro	-2818
establ	-2819
▁ll	-2820
oble	-2821
▁david	-2822
▁dezaga	-2823
▁latina	-2824
ty	-2825
din	-2826
onimo	-2827
uesca	-2828
▁actuals	-2829
▁miembros	-2830
''/''	-2831
▁interior	-2832
▁sevilla	-2833
▁fron	-2834
▁arias	-2835
▁felipe	-2836
▁influencia	-2837
▁facioron	-2838
amp	-2839
▁fen	-2840
shire	-2841
ith	-2842
▁bil	-2843
▁lev	-2844
tad	-2845
▁metat	-2846
▁principal	-2847
▁etc	-2848
▁kar	-2849
ation	-2850
▁rock	-2851
▁camín	-2852
▁chris	-2853
▁duque	-2854
▁vegadas	-2855
gor	-2856
yan	-2857
zón	-2858
ína	-2859
▁cic	-2860
▁jose	-2861
▁posible	-2862
▁diferencia	-2863
ño	-2864
▁av	-2865
▁merc	-2866
▁barro	-2867
▁deter	-2868
▁antiparte	-2869
ok	-2870
zano	-2871
▁mam	-2872
amanca	-2873
▁austr	-2874
▁probl	-2875
▁navarro	-2876
▁diferent	-2877
nav	-2878
▁altaria	-2879
enc	-2880
▁fos	-2881
▁compar	-2882
▁escrito	-2883
ish	-2884
▁reina	-2885
pu	-2886
▁sc	-2887
▁procla	-2888
▁ev	-2889
▁resp	-2890
cional	-2891
▁permit	-2892
ess	-2893
atras	-2894
bel	-2895
▁fl	-2896
▁ata	-2897
▁dese	-2898
▁eslo	-2899
▁tota	-2900
visión	-2901
▁condici	-2902
illos	-2903
onica	-2904
▁benas	-2905
▁canal	-2906
▁funda	-2907
▁menistro	-2908
▁variants	-2909
lata	-2910
▁copa	-2911
▁foto	-2912
rio	-2913
ante	-2914
abeto	-2915
▁control	-2916
ay	-2917
icó	-2918
rón	-2919
▁crov	-2920
uellas	-2921
▁britanica	-2922
▁salamanca	-2923
uf	-2924
ive	-2925
▁apl	-2926
▁bad	-2927
berto	-2928
▁alemana	-2929
▁virchen	-2930
▁qualsiquier	-2931
▁fav	-2932
aroca	-2933
gación	-2934
▁libre	-2935
(0000),	-2936
izata	-2937
ultura	-2938
▁incluy	-2939
oll	-2940
▁azul	-2941
▁sino	-2942
▁pes	-2943
posit	-2944
ity	-2945
ult	-2946
▁(0000-	-2947
▁nápols	-2948
▁00000000	-2949
▁periodista	-2950
ust	-2951
xar	-2952
▁ecetra	-2953
▁proven	-2954
▁án	-2955
▁dur	-2956
▁sing	-2957
ket	-2958
▁dinast	-2959
▁plantas	-2960
ils	-2961
cesi	-2962
utivo	-2963
▁moder	-2964
▁treball	-2965
▁0000/00,	-2966
▁situación	-2967
jos	-2968
▁voc	-2969
▁daroca	-2970
▁expres	-2971
▁dirección	-2972
eus	-2973
▁vil	-2974
ables	-2975
andon	-2976
▁succes	-2977
.,	-2978
▁aso	-2979
▁parlas	-2980
▁temper	-2981
▁considerato	-2982
▁sat	-2983
▁aria	-2984
▁corr	-2985
▁tard	-2986
inf	-2987
reno	-2988
▁lim	-2989
andal	-2990
▁todas	-2991
equ	-2992
dan	-2993
▁austriaco	-2994
zan	-2995
▁mugas	-2996
sor	-2997
atay	-2998
libro	-2999
ontano	-3000
▁feban	-3001
▁mayes	-3002
grafica	-3003
▁hispan	-3004
▁sudueste	-3005
pez	-3006
cals	-3007
▁campos	-3008
istencia	-3009
imento	-3010
▁dicen	-3011
▁auguas	-3012
▁richard	-3013
▁cra	-3014
▁ron	-3015
▁quad	-3016
▁norueste	-3017
sal	-3018
ucas	-3019
▁00,	-3020
▁carb	-3021
▁días	-3022
vina	-3023
▁balbastro	-3024
▁primerías	-3025
ota	-3026
tania	-3027
▁fonetica	-3028
▁luz	-3029
▁mir	-3030
▁wal	-3031
▁grau	-3032
▁soria	-3033
▁vallad	-3034
▁antigos	-3035
▁consello	-3036
▁envueltas	-3037
▁relaciona	-3038
▁organización	-3039
▁zamora	-3040
gal	-3041
ental	-3042
▁garcía	-3043
▁comunas	-3044
▁neerlandés	-3045
bi	-3046
lon	-3047
tón	-3048
▁mira	-3049
▁vegada	-3050
▁michael	-3051
▁termins	-3052
▁variant	-3053
bles	-3054
eces	-3055
▁web	-3056
▁graf	-3057
▁maria	-3058
ny	-3059
ps	-3060
».	-3061
vill	-3062
▁forman	-3063
▁polaco	-3064
ak	-3065
)''	-3066
▁bron	-3067
▁lech	-3068
ativas	-3069
▁marguin	-3070
cina	-3071
eria	-3072
▁gob	-3073
lants	-3074
▁frank	-3075
▁decada	-3076
▁función	-3077
▁cristians	-3078
lín	-3079
tern	-3080
▁entr	-3081
▁grecia	-3082
cón	-3083
▁agu	-3084
▁disco	-3085
olochico	-3086
gr	-3087
ilv	-3088
▁amp	-3089
▁sex	-3090
▁paso	-3091
▁buena	-3092
▁producción	-3093
ivos	-3094
ville	-3095
▁conserv	-3096
▁portugués	-3097
▁sp	-3098
anch	-3099
arch	-3100
ctiv	-3101
idae	-3102
imia	-3103
▁arte	-3104
▁tradición	-3105
▁archent	-3106
▁0000-00,	-3107
▁arrib	-3108
iatos	-3109
ocián	-3110
▁calatay	-3111
▁nuestra	-3112
▁comarcas	-3113
egos	-3114
unda	-3115
▁modelo	-3116
▁suecia	-3117
gran	-3118
vien	-3119
▁trobamos	-3120
▁rechional	-3121
▁recibitos	-3122
jar	-3123
dire	-3124
▁dev	-3125
▁escuela	-3126
▁noreste	-3127
▁esdevién	-3128
bla	-3129
austria	-3130
▁austro	-3131
▁lexico	-3132
▁paz	-3133
▁baver	-3134
▁prene	-3135
▁chicot	-3136
▁alemans	-3137
▁ce	-3138
orías	-3139
acción	-3140
especi	-3141
▁vocal	-3142
▁zaguera	-3143
itat	-3144
▁fri	-3145
▁puent	-3146
▁repar	-3147
esto	-3148
itan	-3149
tero	-3150
ierta	-3151
▁villas	-3152
igan	-3153
▁clar	-3154
aragon	-3155
▁filmo	-3156
▁invas	-3157
hr	-3158
pany	-3159
▁reich	-3160
▁fisica	-3161
▁pronuncia	-3162
▁dal	-3163
▁pasa	-3164
america	-3165
▁encomen	-3166
▁tam	-3167
▁fues	-3168
▁toda	-3169
▁armen	-3170
▁fra	-3171
▁sed	-3172
▁filmografía	-3173
fel	-3174
▁chab	-3175
▁palab	-3176
▁localidatz	-3177
bus	-3178
enç	-3179
vers	-3180
▁ton	-3181
▁cola	-3182
▁fuents	-3183
▁rematar	-3184
▁especialment	-3185
del	-3186
:000	-3187
▁fol	-3188
▁jul	-3189
▁ple	-3190
garos	-3191
▁etim	-3192
▁venez	-3193
uega	-3194
▁campion	-3195
left	-3196
▁dia	-3197
ben	-3198
rep	-3199
ieto	-3200
▁lit	-3201
▁pens	-3202
▁fueva	-3203
▁protech	-3204
▁tradicionalment	-3205
▁fi	-3206
▁fes	-3207
▁medio	-3208
▁guaire	-3209
▁bizantín	-3210
orn	-3211
iver	-3212
prim	-3213
landia	-3214
▁cortz	-3215
▁chermanico	-3216
cus	-3217
zos	-3218
fauna	-3219
▁(0):	-3220
▁europea	-3221
▁dramaturgo	-3222
gü	-3223
tronom	-3224
▁andre	-3225
▁guerras	-3226
▁zaguerías	-3227
aug	-3228
fil	-3229
ore	-3230
ells	-3231
▁fla	-3232
▁jan	-3233
▁remató	-3234
▁anterior	-3235
▁valladolit	-3236
tó	-3237
ivid	-3238
▁dicir	-3239
▁posib	-3240
▁romans	-3241
▁chicota	-3242
▁televisión	-3243
bu	-3244
ath	-3245
▁clase	-3246
enyo	-3247
fico	-3248
▁dinastía	-3249
▁mud	-3250
▁autors	-3251
▁chista	-3252
▁personas	-3253
obén	-3254
▁bud	-3255
▁enti	-3256
▁0.000,00	-3257
▁sociedat	-3258
▁historica	-3259
▁huei	-3260
▁solo	-3261
aqu	-3262
dio	-3263
–00	-3264
▁mc	-3265
▁royo	-3266
▁lista	-3267
▁veche	-3268
▁meridional	-3269
zó	-3270
▁'	-3271
raga	-3272
porte	-3273
▁favor	-3274
▁altros	-3275
▁campan	-3276
▁pachina	-3277
mana	-3278
▁fal	-3279
randa	-3280
▁tend	-3281
▁secre	-3282
▁victoria	-3283
vista	-3284
grupos	-3285
▁plegar	-3286
cast	-3287
ides	-3288
ington	-3289
▁castellano	-3290
camp	-3291
quir	-3292
▁tit	-3293
▁beluns	-3294
ró	-3295
nam	-3296
▁sta	-3297
▁land	-3298
ladors	-3299
▁republ	-3300
▁elemento	-3301
!!	-3302
olf	-3303
quet	-3304
▁ger	-3305
gache	-3306
yoron	-3307
iestas	-3308
▁escal	-3309
▁viello	-3310
cua	-3311
ols	-3312
chas	-3313
▁flu	-3314
▁esto	-3315
▁berlín	-3316
▁otomán	-3317
ov	-3318
▁ang	-3319
▁mul	-3320
▁situau	-3321
▁caracteristicas	-3322
crat	-3323
omat	-3324
▁crim	-3325
▁leida	-3326
▁musical	-3327
▁posterior	-3328
alba	-3329
ierro	-3330
uelta	-3331
▁carre	-3332
▁branca	-3333
▁nombres	-3334
▁calatayú	-3335
▁información	-3336
▁jack	-3337
▁femen	-3338
clos	-3339
▁red	-3340
orden	-3341
▁adap	-3342
▁labor	-3343
▁prenió	-3344
ws	-3345
alemán	-3346
chenier	-3347
ox	-3348
ech	-3349
dendo	-3350
uesta	-3351
▁carl	-3352
▁adhib	-3353
▁plegó	-3354
▁versión	-3355
eneral	-3356
▁human	-3357
▁negra	-3358
▁rumanía	-3359
mó	-3360
▁pais	-3361
▁luita	-3362
▁monte	-3363
chectivo	-3364
▁sardo	-3365
▁meyatos	-3366
cat	-3367
gua	-3368
íxar	-3369
▁pasó	-3370
▁plural	-3371
enso	-3372
▁coin	-3373
▁ident	-3374
▁peter	-3375
▁conchun	-3376
▁primero	-3377
lat	-3378
ican	-3379
africa	-3380
mientos	-3381
▁secilia	-3382
ieu	-3383
▁bispe	-3384
▁museu	-3385
uero	-3386
▁cicl	-3387
▁piet	-3388
zaragoza	-3389
▁competi	-3390
rol	-3391
intrés	-3392
▁saxonia	-3393
ué	-3394
▁barroco	-3395
▁ul	-3396
▁bib	-3397
▁caix	-3398
▁ener	-3399
▁puya	-3400
▁parroqu	-3401
ür	-3402
far	-3403
eira	-3404
▁tos	-3405
tallas	-3406
hibierno	-3407
▁historico	-3408
ingu	-3409
▁alc	-3410
▁bom	-3411
▁vul	-3412
▁montanya	-3413
▁semontano	-3414
▁administrativa	-3415
ings	-3416
▁fir	-3417
etico	-3418
estend	-3419
▁asobén	-3420
▁chugador	-3421
▁0.000.000	-3422
▁occidentals	-3423
▁mez	-3424
imientos	-3425
▁fernández	-3426
iere	-3427
itut	-3428
▁fac	-3429
tario	-3430
▁emplegos	-3431
▁comunidatz	-3432
abel	-3433
▁honor	-3434
▁talment	-3435
▁cantidat	-3436
mite	-3437
sión	-3438
▁tri	-3439
▁chel	-3440
▁fins	-3441
▁mida	-3442
▁desep	-3443
▁conver	-3444
ram	-3445
▁dol	-3446
▁hom	-3447
▁igual	-3448
▁deputa	-3449
▁establito	-3450
yr	-3451
▁reis	-3452
▁vals	-3453
▁radio	-3454
escribe	-3455
▁diocesi	-3456
ão	-3457
blo	-3458
pia	-3459
anim	-3460
gram	-3461
▁hit	-3462
▁dominio	-3463
ól	-3464
nor	-3465
ugos	-3466
▁famil	-3467
ciación	-3468
▁pronom	-3469
▁sec	-3470
▁radiz	-3471
▁remon	-3472
▁blanca	-3473
▁(0000-0000).	-3474
▁alm	-3475
cantón	-3476
hongría	-3477
directors	-3478
▁interpres	-3479
su	-3480
ovia	-3481
quel	-3482
▁mai	-3483
ología	-3484
▁parabras	-3485
▁bl	-3486
▁pag	-3487
▁rey	-3488
▁intro	-3489
acionals	-3490
▁esdevin	-3491
▁serbios	-3492
▁prencipia	-3493
egr	-3494
viv	-3495
tivas	-3496
▁extens	-3497
▁respectiv	-3498
hen	-3499
ple	-3500
vens	-3501
▁lei	-3502
anter	-3503
comarca	-3504
èr	-3505
uto	-3506
▁gab	-3507
▁industr	-3508
asa	-3509
▁cum	-3510
▁quin	-3511
▁teoría	-3512
▁formata	-3513
fu	-3514
ixos	-3515
▁cod	-3516
▁viz	-3517
▁desepar	-3518
▁iberico	-3519
▁aragonesas	-3520
win	-3521
ices	-3522
icis	-3523
▁nin	-3524
▁nun	-3525
▁acom	-3526
▁ló	-3527
inar	-3528
▁ach	-3529
▁kil	-3530
▁tel	-3531
iloca	-3532
▁india	-3533
▁selva	-3534
▁comuns	-3535
▁prusia	-3536
fon	-3537
ulo	-3538
▁bus	-3539
▁sor	-3540
andre	-3541
▁fiestas	-3542
▁castellón	-3543
▁amos	-3544
▁contr	-3545
▁frent	-3546
imentos	-3547
ifa	-3548
asia	-3549
▁pet	-3550
▁var	-3551
iclos	-3552
▁pred	-3553
▁siga	-3554
▁existi	-3555
▁relichión	-3556
uri	-3557
▁dinam	-3558
positors	-3559
▁recibe	-3560
▁incluye	-3561
ativament	-3562
▁0,	-3563
▁joan	-3564
▁lópez	-3565
▁tornó	-3566
▁andaluz	-3567
▁cordoba	-3568
▁enantes	-3569
▁poblacions	-3570
ss	-3571
apa	-3572
lug	-3573
▁sarda	-3574
ilvania	-3575
letismo	-3576
▁mongol	-3577
sk	-3578
▁ri	-3579
▁blo	-3580
▁pad	-3581
▁****	-3582
futbol	-3583
▁filla	-3584
▁institución	-3585
idor	-3586
icals	-3587
▁cand	-3588
▁mozar	-3589
▁conson	-3590
▁chirona	-3591
▁interpretación	-3592
ence	-3593
▁seis	-3594
municip	-3595
▁americ	-3596
▁fuerza	-3597
▁gotico	-3598
▁benasqués	-3599
set	-3600
▁resid	-3601
▁sería	-3602
▁renaix	-3603
▁simpla	-3604
▁bretanya	-3605
bat	-3606
▁som	-3607
▁divis	-3608
▁neces	-3609
▁campión	-3610
ade	-3611
▁laco	-3612
▁para	-3613
▁simb	-3614
ugosla	-3615
institu	-3616
▁debito	-3617
▁equival	-3618
ivas	-3619
▁ampla	-3620
▁causa	-3621
▁indica	-3622
▁substan	-3623
▁escritora	-3624
▁historiador	-3625
ash	-3626
ong	-3627
alón	-3628
iago	-3629
▁cob	-3630
grama	-3631
oración	-3632
▁descub	-3633
pat	-3634
ipuz	-3635
▁*00	-3636
ionals	-3637
▁serbia	-3638
▁nacions	-3639
▁matematico	-3640
▁uso	-3641
ticia	-3642
▁naixió	-3643
▁aragones	-3644
tán	-3645
▁siet	-3646
▁activ	-3647
ferencia	-3648
▁material	-3649
▁conquiesta	-3650
-,	-3651
''»	-3652
use	-3653
ipes	-3654
ixas	-3655
▁cru	-3656
arabe	-3657
▁sold	-3658
▁clima	-3659
▁holly	-3660
▁ducato	-3661
▁chirmán	-3662
▁romance	-3663
▁presentan	-3664
izó	-3665
▁isto	-3666
▁capaci	-3667
▁fierro	-3668
hel	-3669
tent	-3670
▁dem	-3671
▁alex	-3672
▁quer	-3673
▁roya	-3674
▁chapón	-3675
▁declar	-3676
▁teatro	-3677
▁belchica	-3678
ld	-3679
sab	-3680
acia	-3681
inal	-3682
▁arch	-3683
▁meta	-3684
▁louis	-3685
cés	-3686
quí	-3687
tau	-3688
gato	-3689
ther	-3690
▁domingo	-3691
compositors	-3692
posa	-3693
▁urb	-3694
▁cals	-3695
▁ángel	-3696
cionario	-3697
▁martin	-3698
▁baverán	-3699
tió	-3700
▁ja	-3701
▁els	-3702
anismo	-3703
▁sinyora	-3704
▁terminación	-3705
"''	-3706
dem	-3707
▁ced	-3708
guera	-3709
▁segund	-3710
▁sciencia	-3711
ert	-3712
seg	-3713
▁noruega	-3714
ls	-3715
rey	-3716
elli	-3717
vera	-3718
iguió	-3719
▁faix	-3720
▁acons	-3721
▁manif	-3722
▁catolica	-3723
futbolistas	-3724
adoc	-3725
europe	-3726
trices	-3727
▁quala	-3728
▁puebla	-3729
▁,	-3730
cab	-3731
pul	-3732
ison	-3733
▁ras	-3734
icant	-3735
▁loís	-3736
▁monts	-3737
▁murcia	-3738
▁riocha	-3739
▁complex	-3740
▁scientif	-3741
▁fá	-3742
ución	-3743
▁derro	-3744
academia	-3745
▁parabra	-3746
▁democrat	-3747
▁metropolit	-3748
▁están	-3749
▁pocos	-3750
articlo	-3751
▁adverb	-3752
▁melitars	-3753
-''	-3754
alm	-3755
▁voz	-3756
▁conti	-3757
▁formar	-3758
▁probab	-3759
▁dreitos	-3760
▁rechimen	-3761
▁microtopon	-3762
▁&	-3763
ugh	-3764
elas	-3765
▁ves	-3766
▁carr	-3767
▁indo	-3768
▁chica	-3769
xa	-3770
yl	-3771
lag	-3772
▁log	-3773
comun	-3774
▁estas	-3775
▁marca	-3776
hongaro	-3777
▁concre	-3778
▁cantabr	-3779
▁griegos	-3780
▁trescruz	-3781
▁temporada	-3782
);	-3783
esi	-3784
uck	-3785
▁cá	-3786
ister	-3787
▁cheor	-3788
▁hidro	-3789
▁johan	-3790
▁ueste	-3791
▁varia	-3792
▁creyación	-3793
gn	-3794
▁kh	-3795
odos	-3796
rana	-3797
reis	-3798
rico	-3799
zona	-3800
uelas	-3801
ologos	-3802
▁tornar	-3803
▁unidat	-3804
▁franceses	-3805
▁hollywood	-3806
▁corresponde	-3807
iny	-3808
▁nord	-3809
▁echip	-3810
▁muita	-3811
egovina	-3812
erals	-3813
▁sara	-3814
▁presona	-3815
▁realidat	-3816
▁desembolique	-3817
ecta	-3818
▁cita	-3819
▁morf	-3820
▁domest	-3821
▁(0000-0000),	-3822
▁chi	-3823
enses	-3824
▁letra	-3825
▁sacro	-3826
▁sancho	-3827
fin	-3828
▁ál	-3829
▁arm	-3830
cht	-3831
inte	-3832
▁locals	-3833
▁debaixo	-3834
▁investi	-3835
▁alcal	-3836
zegovina	-3837
▁company	-3838
▁eleccions	-3839
▁instituto	-3840
▁fus	-3841
▁crit	-3842
inacions	-3843
olochica	-3844
▁colonia	-3845
▁socialista	-3846
cet	-3847
mol	-3848
-00000	-3849
▁fueras	-3850
▁declaración	-3851
▁emig	-3852
▁naturals	-3853
ann	-3854
ales	-3855
▁difton	-3856
▁cheograf	-3857
▁ferrando	-3858
▁cucha	-3859
ricultura	-3860
▁lenguadoc	-3861
▁revolución	-3862
sob	-3863
▁ent	-3864
▁fut	-3865
uerta	-3866
▁paci	-3867
▁viii	-3868
ireneu	-3869
orient	-3870
ductors	-3871
▁cadiera	-3872
▁miranda	-3873
▁simbolo	-3874
cy	-3875
kar	-3876
ubio	-3877
▁chu	-3878
▁guill	-3879
republica	-3880
▁conoixitos	-3881
uno	-3882
▁dr	-3883
ield	-3884
▁atom	-3885
▁espe	-3886
▁quar	-3887
▁plega	-3888
▁salvador	-3889
eth	-3890
urg	-3891
▁andr	-3892
itectura	-3893
▁mencion	-3894
▁campanya	-3895
''"	-3896
▁vla	-3897
▁infer	-3898
▁noble	-3899
actrices	-3900
▁fuellas	-3901
▁referir	-3902
▁santiago	-3903
▁.	-3904
ling	-3905
greso	-3906
▁napol	-3907
castiello	-3908
ablo	-3909
arre	-3910
▁libel	-3911
▁pasar	-3912
presión	-3913
ecos	-3914
inia	-3915
rano	-3916
▁gon	-3917
▁niv	-3918
autor	-3919
orpor	-3920
▁caus	-3921
▁feita	-3922
▁individ	-3923
▁provién	-3924
iso	-3925
caya	-3926
ster	-3927
▁leo	-3928
▁pico	-3929
▁paral	-3930
▁apareixe	-3931
tot	-3932
ume	-3933
mann	-3934
▁zar	-3935
ificar	-3936
tantin	-3937
▁corre	-3938
▁madrid	-3939
umo	-3940
ebis	-3941
▁biel	-3942
▁nunca	-3943
▁joseph	-3944
▁manten	-3945
▁torres	-3946
▁chodigos	-3947
▁condicions	-3948
enn	-3949
▁mis	-3950
▁esper	-3951
▁fácil	-3952
rosellón	-3953
▁federal	-3954
ais	-3955
png	-3956
une	-3957
rael	-3958
▁bio	-3959
▁mall	-3960
▁largo	-3961
▁bronze	-3962
anterior	-3963
▁parroquial	-3964
ek	-3965
▁!!	-3966
▁circ	-3967
▁luna	-3968
▁carol	-3969
▁porta	-3970
▁pueyo	-3971
▁gubern	-3972
▁libros	-3973
▁proced	-3974
▁castellana	-3975
▁principals	-3976
urre	-3977
▁naz	-3978
▁hipo	-3979
▁pard	-3980
▁españ	-3981
▁tella	-3982
▁partecip	-3983
▁capacidat	-3984
▁inchenier	-3985
▁eta	-3986
▁sav	-3987
parti	-3988
▁arque	-3989
▁ditos	-3990
▁cristo	-3991
▁espacio	-3992
▁yugosla	-3993
▁esdevenió	-3994
▁0000-0000,	-3995
cidat	-3996
▁carta	-3997
▁canadá	-3998
icacions	-3999
▁concent	-4000
municipio	-4001
fra	-4002
itó	-4003
ium	-4004
lia	-4005
imas	-4006
▁phil	-4007
▁siguient	-4008
riz	-4009
utr	-4010
▁gla	-4011
ensis	-4012
▁dura	-4013
▁rumán	-4014
▁dentro	-4015
▁clasica	-4016
ald	-4017
ump	-4018
▁bru	-4019
deban	-4020
▁basil	-4021
▁infin	-4022
▁pasau	-4023
▁comercial	-4024
▁transición	-4025
aín	-4026
irlanda	-4027
▁à	-4028
chi	-4029
sta	-4030
ding	-4031
usto	-4032
estre	-4033
▁00-00	-4034
▁matar	-4035
▁novela	-4036
▁hongría	-4037
▁zagueras	-4038
gio	-4039
unt	-4040
tián	-4041
▁cau	-4042
▁depor	-4043
▁europeu	-4044
▁economía	-4045
my	-4046
auto	-4047
bols	-4048
▁rem	-4049
▁sos	-4050
itaria	-4051
▁quimico	-4052
▁caballers	-4053
▁resistencia	-4054
dam	-4055
det	-4056
rue	-4057
▁tu	-4058
ustín	-4059
▁maur	-4060
arquía	-4061
▁antigas	-4062
▁descend	-4063
▁existen	-4064
▁determin	-4065
erg	-4066
cana	-4067
iato	-4068
▁rap	-4069
▁sas	-4070
vaquia	-4071
▁mamif	-4072
▁obten	-4073
tio	-4074
▁pé	-4075
form	-4076
ines	-4077
ragona	-4078
▁contacto	-4079
▁crovates	-4080
acet	-4081
ander	-4082
▁gaud	-4083
▁creyó	-4084
ipuzcua	-4085
▁conchuga	-4086
▁consideran	-4087
▁patrimonio	-4088
▁significau	-4089
alt	-4090
inc	-4091
isto	-4092
zana	-4093
▁bap	-4094
▁soz	-4095
unión	-4096
▁alaz	-4097
▁nucl	-4098
▁tipos	-4099
chectos	-4100
▁modern	-4101
▁eslavos	-4102
olochicos	-4103
▁economica	-4104
grupo	-4105
ombres	-4106
llo	-4107
▁ebro	-4108
▁escul	-4109
▁nombr	-4110
▁pilar	-4111
▁fiesta	-4112
▁comunicación	-4113
arán	-4114
▁era	-4115
empor	-4116
▁vila	-4117
tamién	-4118
▁cabal	-4119
▁maced	-4120
entación	-4121
▁partici	-4122
▁temperatura	-4123
fol	-4124
way	-4125
▁pom	-4126
▁tim	-4127
▁marc	-4128
▁tron	-4129
cturas	-4130
▁mascul	-4131
▁xiloca	-4132
tí	-4133
heba	-4134
▁rob	-4135
▁zel	-4136
aínsa	-4137
etnam	-4138
▁fris	-4139
▁islam	-4140
exercito	-4141
▁enerchía	-4142
▁siguients	-4143
▁federación	-4144
fal	-4145
bach	-4146
▁guión	-4147
▁rusos	-4148
▁arabes	-4149
▁choven	-4150
▁contina	-4151
▁vicente	-4152
▁dinamarca	-4153
▁prencipalment	-4154
lic	-4155
▁ke	-4156
sent	-4157
▁pic	-4158
▁inte	-4159
istros	-4160
▁griega	-4161
0,	-4162
acos	-4163
▁dipl	-4164
▁vecin	-4165
▁nuclios	-4166
eto	-4167
ois	-4168
inch	-4169
uper	-4170
entos	-4171
uesto	-4172
itación	-4173
▁croacia	-4174
▁servicio	-4175
▁despoblato	-4176
▁mosc	-4177
▁tién	-4178
anueva	-4179
intors	-4180
▁cadag	-4181
▁podría	-4182
tentri	-4183
▁sinyal	-4184
▁conquer	-4185
▁eixemplos	-4186
heim	-4187
encio	-4188
▁pilo	-4189
▁semana	-4190
▁comercio	-4191
▁republic	-4192
crip	-4193
▁mom	-4194
▁corn	-4195
▁repob	-4196
▁nuevas	-4197
▁sinyor	-4198
▁numeros	-4199
▁pirenen	-4200
▁produce	-4201
▁carretera	-4202
ambre	-4203
ticos	-4204
▁reta	-4205
▁vista	-4206
espital	-4207
▁chicotz	-4208
ère	-4209
▁it	-4210
enza	-4211
▁aflu	-4212
▁asia	-4213
▁repleg	-4214
▁turquía	-4215
ague	-4216
▁pie	-4217
▁dimin	-4218
▁meses	-4219
▁queda	-4220
▁adedica	-4221
▁traducción	-4222
hu	-4223
xo	-4224
die	-4225
tida	-4226
▁vel	-4227
ordin	-4228
▁velo	-4229
encara	-4230
▁podemos	-4231
▁prencipe	-4232
ares	-4233
cany	-4234
isch	-4235
▁gor	-4236
▁cron	-4237
▁guard	-4238
▁feitos	-4239
▁ubieto	-4240
▁agustín	-4241
▁tenemos	-4242
▁considerar	-4243
él	-4244
bien	-4245
urar	-4246
▁vid	-4247
amble	-4248
▁bene	-4249
americ	-4250
cident	-4251
▁0000/00.	-4252
▁conchugación	-4253
atz	-4254
obo	-4255
▁zo	-4256
hemia	-4257
inata	-4258
▁chor	-4259
▁estos	-4260
▁estend	-4261
▁presid	-4262
▁describ	-4263
▁vietnam	-4264
▁emplegato	-4265
▁septentri	-4266
ili	-4267
fort	-4268
▁sag	-4269
ienta	-4270
▁pall	-4271
▁redota	-4272
quitecto	-4273
▁esdevinió	-4274
bau	-4275
sin	-4276
tesi	-4277
estim	-4278
ticas	-4279
▁litu	-4280
▁conse	-4281
▁tozal	-4282
isticos	-4283
▁fotografía	-4284
▁particular	-4285
▁lingüistica	-4286
yir	-4287
alde	-4288
▁cav	-4289
▁gir	-4290
▁lur	-4291
▁mex	-4292
cismo	-4293
▁mena	-4294
▁afric	-4295
▁colec	-4296
▁manch	-4297
▁basket	-4298
▁muerta	-4299
▁partis	-4300
▁normand	-4301
▁otomans	-4302
òs	-4303
▁wh	-4304
▁ells	-4305
▁hill	-4306
▁post	-4307
vación	-4308
qüencia	-4309
▁destru	-4310
▁fonema	-4311
▁hitler	-4312
▁quatro	-4313
▁aliatos	-4314
▁madeira	-4315
▁publico	-4316
dr	-4317
dy	-4318
pir	-4319
chez	-4320
▁nic	-4321
teras	-4322
turas	-4323
ueito	-4324
▁blas	-4325
conoix	-4326
uestos	-4327
▁botan	-4328
▁decis	-4329
▁fuerte	-4330
▁trazas	-4331
▁estudio	-4332
▁districtos	-4333
mig	-4334
cans	-4335
letas	-4336
▁nich	-4337
▁antro	-4338
ucación	-4339
▁medico	-4340
▁esleito	-4341
▁desepara	-4342
▁edificios	-4343
▁campionato	-4344
▁existencia	-4345
by	-4346
ife	-4347
nat	-4348
illy	-4349
olia	-4350
uella	-4351
ática	-4352
▁hier	-4353
▁facil	-4354
▁torna	-4355
ometros	-4356
▁actors	-4357
▁buenos	-4358
▁maxima	-4359
▁gracias	-4360
▁revista	-4361
▁frontera	-4362
▁servicios	-4363
rad	-4364
bona	-4365
iona	-4366
▁cop	-4367
▁seny	-4368
▁multi	-4369
amburgo	-4370
▁puntos	-4371
▁calenda	-4372
▁preposición	-4373
bum	-4374
fad	-4375
tam	-4376
▁rusa	-4377
hombre	-4378
▁moscú	-4379
▁tabla	-4380
▁freder	-4381
alfabeto	-4382
ionistas	-4383
▁entidat	-4384
▁millors	-4385
azz	-4386
▁tax	-4387
▁pier	-4388
▁wood	-4389
▁marco	-4390
▁compon	-4391
▁refuch	-4392
▁emplegar	-4393
▁estándar	-4394
ony	-4395
▁wor	-4396
▁bany	-4397
▁chaci	-4398
▁ganad	-4399
▁arteta	-4400
▁creyar	-4401
▁continó	-4402
▁plegoron	-4403
▁toponimia	-4404
▁constitución	-4405
▁probablement	-4406
:00	-4407
uth	-4408
▁::	-4409
saint	-4410
▁celta	-4411
▁duero	-4412
▁mecan	-4413
asturias	-4414
pet	-4415
üer	-4416
▁ár	-4417
elos	-4418
udio	-4419
iense	-4420
▁molda	-4421
▁recuper	-4422
tantinoble	-4423
agricultura	-4424
▁pp	-4425
chun	-4426
▁bac	-4427
allas	-4428
estas	-4429
▁rodr	-4430
▁solid	-4431
alicant	-4432
▁humana	-4433
▁reinos	-4434
acetania	-4435
▁terreno	-4436
▁venecia	-4437
▁sí	-4438
▁arc	-4439
▁pref	-4440
▁rafa	-4441
▁datos	-4442
▁ortodo	-4443
▁escrita	-4444
▁hongaro	-4445
▁tarragona	-4446
▁jes	-4447
▁tarba	-4448
▁fillos	-4449
▁propos	-4450
▁parlamento	-4451
▁tradicionals	-4452
dra	-4453
irán	-4454
▁lid	-4455
▁segura	-4456
▁sentito	-4457
atletismo	-4458
▁chicotas	-4459
▁ferrández	-4460
▁relacions	-4461
orf	-4462
▁bla	-4463
achus	-4464
▁khan	-4465
▁send	-4466
(0000)	-4467
escocia	-4468
▁zelanda	-4469
▁programa	-4470
▁anteriors	-4471
▁prencipio	-4472
dre	-4473
lev	-4474
ort	-4475
arda	-4476
orca	-4477
ulle	-4478
▁ocas	-4479
tifici	-4480
▁mexic	-4481
▁monta	-4482
▁cantas	-4483
▁conced	-4484
▁vizcaya	-4485
▁albandon	-4486
▁bulgaria	-4487
▁variedatz	-4488
amo	-4489
▁adu	-4490
▁tas	-4491
estos	-4492
ofici	-4493
quera	-4494
ombard	-4495
▁verano	-4496
▁gaudenç	-4497
▁pireneu	-4498
▁partitos	-4499
▁california	-4500
▁bes	-4501
▁cés	-4502
▁grav	-4503
▁util	-4504
▁west	-4505
onomía	-4506
▁grand	-4507
ilesias	-4508
.)	-4509
wer	-4510
uros	-4511
▁tamb	-4512
▁augua	-4513
▁expan	-4514
▁fabla	-4515
▁integ	-4516
▁marit	-4517
▁perig	-4518
▁poses	-4519
▁suelo	-4520
▁altras	-4521
▁thomas	-4522
▁congreso	-4523
▁sobretot	-4524
▁prochecto	-4525
ace	-4526
atón	-4527
▁artes	-4528
▁graus	-4529
▁quedó	-4530
▁funcion	-4531
▁medalla	-4532
uk	-4533
ceso	-4534
▁barb	-4535
▁exper	-4536
▁exter	-4537
▁ferro	-4538
▁documentos	-4539
▁prencipios	-4540
▁simplament	-4541
daf	-4542
vir	-4543
iner	-4544
aduya	-4545
tament	-4546
▁crimea	-4547
▁isabel	-4548
▁destacatos	-4549
hl	-4550
tiz	-4551
teca	-4552
▁aux	-4553
egual	-4554
local	-4555
novel	-4556
ermita	-4557
▁chelo	-4558
▁protes	-4559
▁escocés	-4560
▁clasificación	-4561
cir	-4562
▁je	-4563
quin	-4564
ters	-4565
tier	-4566
ducir	-4567
inois	-4568
queta	-4569
▁aspe	-4570
▁chil	-4571
▁masa	-4572
▁000,0	-4573
▁abund	-4574
▁altas	-4575
▁broto	-4576
▁castro	-4577
▁situada	-4578
▁ucraína	-4579
istración	-4580
▁venezuela	-4581
enya	-4582
hard	-4583
▁nar	-4584
▁norm	-4585
▁cargo	-4586
▁reser	-4587
▁partiu	-4588
▁selvas	-4589
▁general	-4590
habitants	-4591
▁chusticia	-4592
▁naturaleza	-4593
ados	-4594
enio	-4595
▁hem	-4596
▁sco	-4597
alpes	-4598
izacions	-4599
▁america	-4600
▁idiomas	-4601
▁0000/0000	-4602
▁velocidat	-4603
0"	-4604
:0	-4605
có	-4606
ranya	-4607
▁aban	-4608
▁plata	-4609
melitars	-4610
▁cantons	-4611
▁charran	-4612
▁imperial	-4613
▁martínez	-4614
▁politicos	-4615
yón	-4616
▁dix	-4617
indat	-4618
omien	-4619
atorio	-4620
uellos	-4621
francia	-4622
▁000-000	-4623
▁corrient	-4624
▁practica	-4625
▁guipuzcua	-4626
cro	-4627
cios	-4628
lars	-4629
ulos	-4630
▁rub	-4631
encial	-4632
lugars	-4633
▁obser	-4634
▁sonora	-4635
illinois	-4636
▁celebra	-4637
zi	-4638
bín	-4639
ugo	-4640
uss	-4641
dera	-4642
well	-4643
▁nau	-4644
▁vey	-4645
istra	-4646
▁agos	-4647
▁deng	-4648
▁roca	-4649
ulario	-4650
▁banda	-4651
▁fusta	-4652
▁entibo	-4653
▁colabor	-4654
▁articlos	-4655
▁incorpor	-4656
zán	-4657
anto	-4658
cton	-4659
izan	-4660
rals	-4661
▁imp	-4662
▁vend	-4663
atería	-4664
▁aires	-4665
▁animal	-4666
▁gallego	-4667
▁respecto	-4668
dad	-4669
urn	-4670
▁ko	-4671
avier	-4672
▁carras	-4673
▁perman	-4674
▁inicial	-4675
▁invasión	-4676
▁andalucía	-4677
▁problemas	-4678
▁caracteristica	-4679
kin	-4680
etts	-4681
ores	-4682
tors	-4683
rimon	-4684
▁pale	-4685
ística	-4686
▁alban	-4687
▁altern	-4688
▁distin	-4689
chectivos	-4690
▁humanidat	-4691
▁territorial	-4692
ds	-4693
torre	-4694
▁clama	-4695
▁naixe	-4696
▁depend	-4697
▁frança	-4698
▁sector	-4699
comunidat	-4700
▁presents	-4701
productors	-4702
gano	-4703
▁catól	-4704
▁activa	-4705
▁mullers	-4706
▁predomin	-4707
▁actividatz	-4708
aul	-4709
rick	-4710
tian	-4711
ucar	-4712
▁arqu	-4713
▁fond	-4714
▁pablo	-4715
▁bohemia	-4716
▁destacan	-4717
="0"	-4718
cier	-4719
arazona	-4720
▁blanco	-4721
▁daniel	-4722
▁rafael	-4723
▁recull	-4724
▁anyatas	-4725
▁establita	-4726
▁kilometros	-4727
▁historicament	-4728
ée	-4729
▁rin	-4730
idors	-4731
▁anat	-4732
▁cier	-4733
▁eros	-4734
▁teix	-4735
itando	-4736
▁xalón	-4737
▁austral	-4738
▁granada	-4739
pp	-4740
ame	-4741
ecu	-4742
▁fc	-4743
ilio	-4744
▁hib	-4745
sachus	-4746
▁gregor	-4747
▁humans	-4748
▁lengua	-4749
▁palabra	-4750
▁quimica	-4751
▁florencia	-4752
▁treballos	-4753
▁industrial	-4754
▁sía	-4755
tatos	-4756
▁priv	-4757
▁manti	-4758
▁rocas	-4759
pintors	-4760
▁pierre	-4761
▁consonant	-4762
▁selección	-4763
cau	-4764
chit	-4765
ratos	-4766
▁curs	-4767
▁liqu	-4768
▁meto	-4769
izatos	-4770
▁oblig	-4771
▁tomás	-4772
▁podeba	-4773
▁escultor	-4774
sachusetts	-4775
▁montanyas	-4776
agu	-4777
bil	-4778
fica	-4779
cters	-4780
▁africa	-4781
▁confed	-4782
▁poquet	-4783
▁terres	-4784
▁constant	-4785
▁oficials	-4786
▁profesor	-4787
▁legalment	-4788
yle	-4789
llón	-4790
mino	-4791
ianas	-4792
▁leon	-4793
▁navar	-4794
▁nuevos	-4795
▁pasando	-4796
▁socials	-4797
▁chaponés	-4798
▁finlandia	-4799
▁0000000000	-4800
òr	-4801
ór	-4802
eller	-4803
▁long	-4804
▁magn	-4805
▁presión	-4806
escribiba	-4807
▁industria	-4808
part	-4809
uals	-4810
▁eus	-4811
▁feg	-4812
▁pala	-4813
icatos	-4814
▁golfo	-4815
▁nombra	-4816
▁emplego	-4817
▁trobaba	-4818
▁metropolitana	-4819
rá	-4820
anth	-4821
bers	-4822
fera	-4823
pira	-4824
ydney	-4825
▁cort	-4826
▁será	-4827
▁occitania	-4828
▁costantinoble	-4829
xe	-4830
▁lí	-4831
▁fase	-4832
▁hered	-4833
▁biblio	-4834
▁forach	-4835
barranco	-4836
▁altoaragon	-4837
▁profesional	-4838
tex	-4839
arab	-4840
▁dor	-4841
ranía	-4842
▁dich	-4843
▁chile	-4844
▁exito	-4845
▁fortif	-4846
▁gramat	-4847
▁ucrain	-4848
▁conoixiu	-4849
▁merindat	-4850
▁populars	-4851
▁sistemas	-4852
úl	-4853
ken	-4854
idge	-4855
▁ken	-4856
roron	-4857
▁terr	-4858
▁tier	-4859
▁alpes	-4860
▁cofad	-4861
▁ditas	-4862
▁punta	-4863
▁ramón	-4864
▁chesús	-4865
▁instru	-4866
▁villar	-4867
▁conoixe	-4868
▁producto	-4869
▁singular	-4870
guionistas	-4871
▁cristiana	-4872
og	-4873
abal	-4874
▁pur	-4875
dende	-4876
▁stre	-4877
▁fenom	-4878
▁inici	-4879
▁sabas	-4880
▁aintro	-4881
-0000-000	-4882
▁mozarabe	-4883
ev	-4884
▁arn	-4885
▁lud	-4886
onesa	-4887
▁luego	-4888
▁preba	-4889
▁qualo	-4890
uración	-4891
batallas	-4892
▁equipes	-4893
▁persona	-4894
▁progres	-4895
▁católico	-4896
▁henrique	-4897
▁mallorca	-4898
▁clasifica	-4899
▁destacato	-4900
▁macedonia	-4901
▁resultato	-4902
oz	-4903
▁†	-4904
cur	-4905
ret	-4906
gues	-4907
king	-4908
▁ana	-4909
▁ram	-4910
▁gris	-4911
▁vent	-4912
izions	-4913
▁césar	-4914
▁mesura	-4915
▁permite	-4916
▁plegando	-4917
localidatz	-4918
▁ez	-4919
cula	-4920
flor	-4921
imar	-4922
adura	-4923
chens	-4924
poetas	-4925
▁amari	-4926
▁petro	-4927
▁montes	-4928
▁planeta	-4929
▁concepto	-4930
▁caracters	-4931
▁sabastián	-4932
▁matrimonio	-4933
▁yugoslavia	-4934
▁creiximiento	-4935
▁cm	-4936
iata	-4937
cular	-4938
escas	-4939
uario	-4940
canyiz	-4941
▁partes	-4942
▁provien	-4943
eropuerto	-4944
▁astronom	-4945
▁carreras	-4946
▁evolucion	-4947
▁canadiense	-4948
▁mitolochía	-4949
arquitectura	-4950
nar	-4951
pus	-4952
▁wa	-4953
izau	-4954
thur	-4955
▁lic	-4956
baixo	-4957
santa	-4958
▁0000;	-4959
▁altos	-4960
▁franç	-4961
▁henry	-4962
entista	-4963
▁entren	-4964
eracions	-4965
andalucía	-4966
▁ciclista	-4967
▁longaria	-4968
▁actividat	-4969
ori	-4970
▁by	-4971
cayo	-4972
cond	-4973
tall	-4974
till	-4975
canton	-4976
eticas	-4977
▁fried	-4978
▁belset	-4979
▁checos	-4980
▁complement	-4981
ién	-4982
tis	-4983
▁ox	-4984
mond	-4985
tils	-4986
▁sib	-4987
tagon	-4988
▁preb	-4989
sierra	-4990
icativo	-4991
▁ilesias	-4992
▁contribu	-4993
▁escritos	-4994
▁atlantico	-4995
▁representación	-4996
oh	-4997
apl	-4998
lav	-4999
aría	-5000
reza	-5001
▁ibn	-5002
▁from	-5003
▁maci	-5004
lesias	-5005
▁helen	-5006
▁estatu	-5007
▁parlan	-5008
▁preson	-5009
▁hespital	-5010
▁cantabria	-5011
▁pronunciación	-5012
lus	-5013
phy	-5014
uesa	-5015
ibles	-5016
▁ganó	-5017
▁antim	-5018
▁invent	-5019
▁parell	-5020
▁guillén	-5021
▁inferior	-5022
▁politicas	-5023
kir	-5024
egal	-5025
quez	-5026
sonne	-5027
tista	-5028
▁roda	-5029
▁stan	-5030
▁proto	-5031
edizions	-5032
▁sciencias	-5033
ité	-5034
esen	-5035
inea	-5036
yato	-5037
▁luc	-5038
▁mem	-5039
admin	-5040
entar	-5041
saber	-5042
▁cros	-5043
▁ella	-5044
▁leis	-5045
▁viol	-5046
▁besti	-5047
▁repro	-5048
▁sangre	-5049
▁sydney	-5050
▁banyeras	-5051
▁mantener	-5052
▁provenza	-5053
▁equivalent	-5054
▁protección	-5055
poco	-5056
▁galo	-5057
▁tuca	-5058
▁with	-5059
ebispe	-5060
▁decid	-5061
▁romanz	-5062
▁bandera	-5063
▁sierras	-5064
▁moldavia	-5065
▁chistabín	-5066
▁septentrional	-5067
cea	-5068
▁pul	-5069
alcal	-5070
iller	-5071
▁tour	-5072
▁curso	-5073
▁negro	-5074
▁pista	-5075
▁pocas	-5076
▁reparto	-5077
▁estación	-5078
▁continent	-5079
▁segundario	-5080
mis	-5081
mur	-5082
tle	-5083
yán	-5084
luye	-5085
▁bay	-5086
▁und	-5087
▁war	-5088
:000.	-5089
itato	-5090
▁bale	-5091
▁pelo	-5092
▁torr	-5093
▁nivel	-5094
▁comunista	-5095
▁diminutivo	-5096
kal	-5097
rel	-5098
edas	-5099
orge	-5100
rist	-5101
yita	-5102
▁rue	-5103
onald	-5104
orich	-5105
▁bord	-5106
▁laur	-5107
▁afluy	-5108
▁march	-5109
▁ocupa	-5110
▁unica	-5111
ambleya	-5112
▁ormino	-5113
▁brancas	-5114
▁chicago	-5115
▁coincid	-5116
▁formando	-5117
▁adedicata	-5118
eck	-5119
ets	-5120
xim	-5121
utos	-5122
▁ray	-5123
rillo	-5124
eticos	-5125
itario	-5126
▁agora	-5127
▁fuera	-5128
▁futuro	-5129
▁philip	-5130
oriental	-5131
▁clamata	-5132
▁desarro	-5133
▁moncayo	-5134
▁trescru	-5135
▁expansión	-5136
▁correspond	-5137
▁competición	-5138
ava	-5139
dia	-5140
ize	-5141
lez	-5142
wis	-5143
ñas	-5144
▁ado	-5145
▁vía	-5146
uardo	-5147
▁nico	-5148
▁galas	-5149
▁coreya	-5150
▁chorche	-5151
▁moderna	-5152
▁depresión	-5153
bad	-5154
jas	-5155
off	-5156
rup	-5157
şti	-5158
▁<''	-5159
▁pant	-5160
▁aduya	-5161
▁vicos	-5162
▁convir	-5163
▁league	-5164
▁planas	-5165
▁prefer	-5166
▁funcions	-5167
▁luengache	-5168
▁monarquía	-5169
▁dirichitas	-5170
▁dreitament	-5171
▁reconquiesta	-5172
anz	-5173
hor	-5174
avia	-5175
icul	-5176
luen	-5177
▁exp	-5178
▁lie	-5179
atica	-5180
▁carn	-5181
▁muro	-5182
sburgo	-5183
▁jesús	-5184
▁pérez	-5185
▁festiv	-5186
▁monten	-5187
▁normal	-5188
▁biescas	-5189
▁conflic	-5190
▁romanti	-5191
ashington	-5192
▁encluyitos	-5193
cord	-5194
▁liv	-5195
▁pav	-5196
▁sun	-5197
únich	-5198
▁colum	-5199
▁mural	-5200
▁malaut	-5201
▁succed	-5202
▁propias	-5203
▁tarazona	-5204
mp	-5205
ani	-5206
mez	-5207
haus	-5208
ites	-5209
mina	-5210
▁ixos	-5211
▁teor	-5212
franca	-5213
▁fundo	-5214
umpción	-5215
actividat	-5216
▁propiedatz	-5217
▁villanueva	-5218
sv	-5219
eso	-5220
imil	-5221
▁hun	-5222
▁kir	-5223
▁let	-5224
▁afir	-5225
▁asas	-5226
▁hans	-5227
▁peix	-5228
▁aleix	-5229
▁checa	-5230
▁culto	-5231
musicos	-5232
▁chinés	-5233
▁colomb	-5234
▁españa	-5235
▁simple	-5236
▁unitas	-5237
politicos	-5238
▁irlandés	-5239
▁largaria	-5240
▁chenerals	-5241
▁romanticismo	-5242
hac	-5243
pue	-5244
adem	-5245
usse	-5246
▁met	-5247
▁vie	-5248
arena	-5249
▁basa	-5250
▁presa	-5251
▁gobern	-5252
▁puerta	-5253
▁alberto	-5254
▁encomien	-5255
▁distribución	-5256
tus	-5257
vall	-5258
icata	-5259
ingen	-5260
▁caza	-5261
ellito	-5262
itarra	-5263
▁rural	-5264
▁contes	-5265
▁deciba	-5266
▁simbol	-5267
▁antimás	-5268
▁noruego	-5269
▁belsetán	-5270
▁matarranya	-5271
▁democratica	-5272
▁herzegovina	-5273
kt	-5274
any	-5275
ass	-5276
esse	-5277
liga	-5278
orón	-5279
▁ham	-5280
▁rit	-5281
▁león	-5282
▁sena	-5283
▁haiga	-5284
occitán	-5285
▁000-00	-5286
▁edward	-5287
▁múnich	-5288
▁produció	-5289
bon	-5290
▁gü	-5291
igas	-5292
▁lang	-5293
andard	-5294
▁turco	-5295
▁calsin	-5296
▁precis	-5297
▁propor	-5298
▁belunas	-5299
▁clamato	-5300
▁vechetación	-5301
ció	-5302
vic	-5303
▁pus	-5304
▁mach	-5305
▁accep	-5306
▁sudaf	-5307
▁prener	-5308
▁turcos	-5309
▁propios	-5310
▁procesos	-5311
arquitecto	-5312
▁fundación	-5313
▁musulmana	-5314
aux	-5315
ere	-5316
:00.	-5317
advo	-5318
▁jim	-5319
▁ball	-5320
essonne	-5321
▁moneda	-5322
▁danubio	-5323
▁francos	-5324
▁diplomat	-5325
▁interpresa	-5326
▁%	-5327
gro	-5328
vil	-5329
ette	-5330
▁enf	-5331
▁lee	-5332
▁oro	-5333
elles	-5334
entes	-5335
ronyo	-5336
▁debe	-5337
▁diez	-5338
▁king	-5339
ensión	-5340
estión	-5341
▁censo	-5342
▁luent	-5343
▁puyar	-5344
▁sueco	-5345
grafico	-5346
▁bielsa	-5347
▁cabeza	-5348
▁europeus	-5349
▁parroquia	-5350
▁0000-0000:	-5351
ij	-5352
laba	-5353
pard	-5354
rían	-5355
illes	-5356
questa	-5357
▁excep	-5358
▁consag	-5359
▁huerta	-5360
especies	-5361
▁polacos	-5362
ect	-5363
gau	-5364
udi	-5365
▁abs	-5366
▁sán	-5367
antro	-5368
itant	-5369
▁city	-5370
▁oliv	-5371
ruecos	-5372
▁promo	-5373
▁repuis	-5374
▁esporte	-5375
▁moderno	-5376
asumpción	-5377
▁freqüent	-5378
cen	-5379
hum	-5380
pio	-5381
tze	-5382
gara	-5383
vento	-5384
verde	-5385
▁joaqu	-5386
▁molec	-5387
▁bilbau	-5388
▁colors	-5389
▁refirme	-5390
▁chacetania	-5391
pad	-5392
soe	-5393
estr	-5394
mich	-5395
▁clo	-5396
▁fic	-5397
▁hos	-5398
haber	-5399
itual	-5400
▁sobi	-5401
▁tran	-5402
anyada	-5403
▁amana	-5404
▁milán	-5405
▁refor	-5406
▁remón	-5407
▁aprove	-5408
▁belarr	-5409
▁irlanda	-5410
▁parteci	-5411
▁logronyo	-5412
▁patrimon	-5413
estendilla	-5414
novelistas	-5415
▁productos	-5416
río	-5417
cede	-5418
erna	-5419
▁pis	-5420
acios	-5421
egros	-5422
▁font	-5423
▁mete	-5424
ensiva	-5425
▁capit	-5426
▁chefe	-5427
▁impos	-5428
ivament	-5429
▁grafía	-5430
▁nucley	-5431
▁record	-5432
▁recorr	-5433
castiella	-5434
▁protagon	-5435
às	-5436
▁ka	-5437
orre	-5438
▁lex	-5439
▁folk	-5440
▁leva	-5441
emberg	-5442
ianigo	-5443
▁benás	-5444
▁ellas	-5445
▁exemp	-5446
▁irreg	-5447
ificato	-5448
▁albert	-5449
▁anyada	-5450
▁asocia	-5451
lovaquia	-5452
▁denomin	-5453
▁recient	-5454
▁respons	-5455
▁medallas	-5456
▁romanica	-5457
archentina	-5458
▁infinitivo	-5459
▁significato	-5460
hid	-5461
see	-5462
ule	-5463
tend	-5464
trof	-5465
▁lac	-5466
▁tet	-5467
atleta	-5468
▁cheso	-5469
▁chira	-5470
▁creye	-5471
▁world	-5472
▁barran	-5473
▁peters	-5474
▁chodigo	-5475
portistas	-5476
gó	-5477
bit	-5478
vio	-5479
bant	-5480
▁aci	-5481
▁gil	-5482
▁god	-5483
▁abril	-5484
▁congo	-5485
▁cosas	-5486
▁decre	-5487
▁sonor	-5488
▁visig	-5489
castell	-5490
▁chusto	-5491
▁divide	-5492
▁landas	-5493
▁mortal	-5494
▁0000–00	-5495
▁sección	-5496
▁esportes	-5497
▁calendata	-5498
▁extensión	-5499
▁interpretacions	-5500
fam	-5501
▁ré	-5502
iedo	-5503
mato	-5504
país	-5505
▁bir	-5506
▁pose	-5507
cracia	-5508
▁roine	-5509
▁reinato	-5510
▁treslad	-5511
▁hongaros	-5512
▁pronombre	-5513
▁tendencia	-5514
▁—	-5515
jor	-5516
yor	-5517
pato	-5518
▁adop	-5519
▁casó	-5520
▁image	-5521
▁només	-5522
▁allora	-5523
▁marina	-5524
▁versant	-5525
nsilvania	-5526
▁australia	-5527
▁cheorchia	-5528
▁participio	-5529
▁representan	-5530
▁conseqüencia	-5531
cron	-5532
guez	-5533
▁são	-5534
▁tin	-5535
▁vit	-5536
▁chim	-5537
▁recons	-5538
independ	-5539
▁alfabeto	-5540
▁nominato	-5541
diccionario	-5542
▁concepción	-5543
▁principios	-5544
igue	-5545
istó	-5546
izon	-5547
▁gio	-5548
▁vio	-5549
▁reun	-5550
▁star	-5551
▁naveg	-5552
▁patron	-5553
▁vulgar	-5554
▁educación	-5555
rod	-5556
zen	-5557
▁ju	-5558
▁om	-5559
ideo	-5560
tone	-5561
íjar	-5562
▁aqu	-5563
▁bin	-5564
▁ord	-5565
ianza	-5566
ifras	-5567
▁chic	-5568
▁frag	-5569
viella	-5570
▁viven	-5571
fectura	-5572
▁demand	-5573
▁declara	-5574
▁unidatz	-5575
▁diversas	-5576
▁conoixida	-5577
▁encomenzó	-5578
▁considerata	-5579
▁conservación	-5580
▁internacionals	-5581
his	-5582
wig	-5583
west	-5584
zato	-5585
ursos	-5586
▁plat	-5587
▁rein	-5588
▁suizo	-5589
▁vocals	-5590
▁hombres	-5591
▁jacques	-5592
▁montanyos	-5593
▁normandía	-5594
▁washington	-5595
▁cristianismo	-5596
xi	-5597
urr	-5598
▁dob	-5599
▁cost	-5600
tranza	-5601
▁chusé	-5602
▁verde	-5603
▁cordel	-5604
▁cuello	-5605
▁figura	-5606
▁gascón	-5607
▁mesmos	-5608
▁segovia	-5609
▁botanico	-5610
▁composición	-5611
▁movimientos	-5612
cci	-5613
aush	-5614
isen	-5615
puer	-5616
▁ans	-5617
andro	-5618
▁femb	-5619
▁mata	-5620
▁mica	-5621
▁reti	-5622
▁tena	-5623
aturas	-5624
▁verte	-5625
▁álbum	-5626
aulorón	-5627
landres	-5628
▁contino	-5629
▁difuera	-5630
▁fabrica	-5631
▁desemboc	-5632
▁escribir	-5633
inv	-5634
blan	-5635
▁eug	-5636
▁aque	-5637
▁pied	-5638
▁sers	-5639
▁urban	-5640
▁costas	-5641
▁michel	-5642
sobrarbe	-5643
olochicas	-5644
▁centrals	-5645
▁exterior	-5646
▁samianigo	-5647
▁visigodos	-5648
▁transporte	-5649
--	-5650
hy	-5651
bón	-5652
dal	-5653
tte	-5654
▁ps	-5655
"''.	-5656
baix	-5657
icus	-5658
vila	-5659
adora	-5660
atico	-5661
austr	-5662
tener	-5663
uerda	-5664
▁cuba	-5665
▁fras	-5666
icando	-5667
▁drama	-5668
▁híjar	-5669
▁temas	-5670
heredia	-5671
lacions	-5672
▁borgon	-5673
▁escape	-5674
▁afluent	-5675
▁comedia	-5676
▁obchecto	-5677
▁conservan	-5678
▁diferenci	-5679
▁espanyols	-5680
fre	-5681
sar	-5682
yes	-5683
riol	-5684
▁bri	-5685
▁ris	-5686
▁xor	-5687
itura	-5688
▁perf	-5689
▁fuese	-5690
ensions	-5691
▁exerci	-5692
▁templo	-5693
escritor	-5694
▁fuerzas	-5695
bia	-5696
svg	-5697
cada	-5698
quim	-5699
ucra	-5700
▁astí	-5701
▁berg	-5702
▁reac	-5703
▁rota	-5704
usalem	-5705
medalla	-5706
▁design	-5707
▁finals	-5708
▁huesca	-5709
▁numers	-5710
▁prenen	-5711
▁zarago	-5712
▁podeban	-5713
▁establió	-5714
▁frederico	-5715
▁friedrich	-5716
▁conoixitas	-5717
▁perteneixe	-5718
òm	-5719
mag	-5720
rech	-5721
▁air	-5722
▁gav	-5723
mando	-5724
▁salz	-5725
▁golpe	-5726
▁guitar	-5727
▁octubre	-5728
war	-5729
aspe	-5730
ciud	-5731
egas	-5732
pero	-5733
▁0-0	-5734
field	-5735
illar	-5736
▁clara	-5737
▁podió	-5738
▁cambeo	-5739
▁confir	-5740
▁pasato	-5741
▁toscana	-5742
asociación	-5743
▁destacando	-5744
lé	-5745
key	-5746
len	-5747
rau	-5748
▁qü	-5749
amor	-5750
chal	-5751
iada	-5752
▁ampl	-5753
▁chul	-5754
▁mario	-5755
▁minor	-5756
ational	-5757
unciato	-5758
▁despla	-5759
▁echipto	-5760
▁boltanya	-5761
▁pareixito	-5762
▁prenioron	-5763
▁perteneixient	-5764
uma	-5765
▁ann	-5766
▁ator	-5767
▁gala	-5768
▁hero	-5769
▁mapa	-5770
izatas	-5771
▁salas	-5772
▁visigo	-5773
▁balcans	-5774
▁termino	-5775
▁estructuras	-5776
uo	-5777
ono	-5778
camb	-5779
ixen	-5780
▁''(	-5781
▁chó	-5782
tolom	-5783
vocal	-5784
aranda	-5785
carril	-5786
cheria	-5787
▁celtas	-5788
▁contex	-5789
▁israel	-5790
▁macizo	-5791
▁materia	-5792
▁noguera	-5793
gramática	-5794
▁document	-5795
▁pacifico	-5796
▁producir	-5797
▁organismos	-5798
▁°	-5799
vid	-5800
ioso	-5801
rena	-5802
rosa	-5803
▁gro	-5804
▁nos	-5805
callo	-5806
ersey	-5807
▁mary	-5808
▁amplo	-5809
▁coraz	-5810
▁esfer	-5811
▁ibero	-5812
▁condòm	-5813
▁vuelta	-5814
establió	-5815
▁batería	-5816
▁compleg	-5817
▁latinas	-5818
▁français	-5819
▁palabras	-5820
administración	-5821
ör	-5822
ski	-5823
uce	-5824
real	-5825
▁raz	-5826
andin	-5827
izada	-5828
▁cerca	-5829
▁diego	-5830
▁gusta	-5831
▁sarra	-5832
▁santos	-5833
▁sánchez	-5834
▁popularment	-5835
uos	-5836
adap	-5837
egro	-5838
losa	-5839
mith	-5840
▁hai	-5841
▁puy	-5842
iando	-5843
istir	-5844
ordán	-5845
▁sala	-5846
▁vars	-5847
ductor	-5848
▁invad	-5849
landesa	-5850
ribagor	-5851
▁letras	-5852
▁menors	-5853
▁naixed	-5854
▁mención	-5855
▁colonias	-5856
▁festival	-5857
▁international	-5858
ane	-5859
iev	-5860
èra	-5861
èth	-5862
acho	-5863
sell	-5864
▁roy	-5865
iliar	-5866
tando	-5867
▁adul	-5868
▁fres	-5869
▁jane	-5870
▁vert	-5871
▁fluvi	-5872
▁series	-5873
▁chabier	-5874
▁consell	-5875
▁eduardo	-5876
lie	-5877
mir	-5878
ole	-5879
▁ot	-5880
000.	-5881
bran	-5882
énez	-5883
▁ern	-5884
▁tib	-5885
cindo	-5886
icias	-5887
reyal	-5888
▁debu	-5889
▁mora	-5890
enguer	-5891
▁claus	-5892
▁infor	-5893
▁fundam	-5894
▁celulas	-5895
▁culturas	-5896
▁representar	-5897
▁orichinalment	-5898
gs	-5899
▁cd	-5900
▁mé	-5901
ades	-5902
esía	-5903
▁adol	-5904
▁anth	-5905
▁brus	-5906
▁exec	-5907
▁nota	-5908
▁peso	-5909
▁sabe	-5910
▁tren	-5911
adverb	-5912
presid	-5913
▁hebre	-5914
vención	-5915
▁pantal	-5916
trucción	-5917
▁esteban	-5918
▁familias	-5919
▁tenioron	-5920
▁universal	-5921
▁principalment	-5922
oló	-5923
"'',	-5924
adri	-5925
laus	-5926
crito	-5927
íguez	-5928
–0000	-5929
▁acus	-5930
▁alba	-5931
▁park	-5932
▁vici	-5933
▁porto	-5934
▁efecto	-5935
▁nobles	-5936
▁walter	-5937
ombardía	-5938
▁consegu	-5939
▁galicia	-5940
▁remonta	-5941
▁bulgaros	-5942
▁economico	-5943
▁manifesta	-5944
▁substrato	-5945
▁renaiximiento	-5946
áz	-5947
ön	-5948
gin	-5949
▁eg	-5950
ebra	-5951
ixar	-5952
olat	-5953
▁lob	-5954
▁fred	-5955
idioma	-5956
kistán	-5957
▁00–00	-5958
▁ultra	-5959
▁caucas	-5960
▁explor	-5961
▁fruito	-5962
▁viella	-5963
emplegan	-5964
▁compren	-5965
▁crovate	-5966
▁catolicos	-5967
▁partecipó	-5968
▁lingüistico	-5969
▁0–	-5970
▁my	-5971
helm	-5972
▁flo	-5973
▁has	-5974
▁lum	-5975
adhib	-5976
▁boca	-5977
▁cercu	-5978
▁depen	-5979
▁loira	-5980
▁nueit	-5981
anthera	-5982
▁conten	-5983
▁johann	-5984
▁latins	-5985
▁costera	-5986
▁maratón	-5987
▁volumen	-5988
▁española	-5989
▁seguindo	-5990
▁nacionals	-5991
▁indoeurope	-5992
▁microtoponimos	-5993
ats	-5994
div	-5995
anal	-5996
chén	-5997
elec	-5998
▁ford	-5999
▁preso	-6000
element	-6001
▁fogache	-6002
▁catalans	-6003
▁proclama	-6004
▁rodríguez	-6005
▁respective	-6006
▁scientifico	-6007
»)	-6008
clus	-6009
erio	-6010
etos	-6011
▁tud	-6012
talin	-6013
▁abra	-6014
▁rete	-6015
itoron	-6016
▁antón	-6017
▁alfred	-6018
▁dialec	-6019
▁medios	-6020
▁tartres	-6021
▁gobierno	-6022
▁emperadors	-6023
▁esdevenindo	-6024
▁ferrocarril	-6025
uv	-6026
gent	-6027
▁bet	-6028
▁bob	-6029
uelos	-6030
▁prom	-6031
▁sall	-6032
▁flors	-6033
▁manda	-6034
▁valor	-6035
▁cambra	-6036
▁difici	-6037
▁autonom	-6038
▁fundador	-6039
▁varsovia	-6040
▁companyía	-6041
▁oposición	-6042
▁independients	-6043
mia	-6044
rum	-6045
amin	-6046
apro	-6047
▁him	-6048
campo	-6049
▁plas	-6050
ponimo	-6051
▁cheno	-6052
▁doble	-6053
▁taifa	-6054
▁garras	-6055
▁pastor	-6056
▁monedas	-6057
apo	-6058
zau	-6059
bell	-6060
rito	-6061
rond	-6062
uria	-6063
▁dul	-6064
chico	-6065
▁brin	-6066
▁gred	-6067
▁inde	-6068
▁nata	-6069
▁encar	-6070
▁natal	-6071
▁ninos	-6072
▁press	-6073
campión	-6074
quierda	-6075
▁perpin	-6076
▁vecins	-6077
chuntivo	-6078
interpre	-6079
▁aldeyas	-6080
▁balears	-6081
▁capiella	-6082
▁provincial	-6083
▁representants	-6084
!''	-6085
ará	-6086
oni	-6087
pel	-6088
uts	-6089
acto	-6090
igra	-6091
ione	-6092
osos	-6093
tina	-6094
▁ces	-6095
rista	-6096
▁coal	-6097
▁karl	-6098
▁mark	-6099
▁mens	-6100
▁borde	-6101
▁estan	-6102
univers	-6103
▁aldeya	-6104
▁arthur	-6105
▁escudo	-6106
▁famoso	-6107
romances	-6108
▁cofadría	-6109
▁lituania	-6110
▁menciona	-6111
▁municipals	-6112
▁continental	-6113
massachusetts	-6114
fl	-6115
ms	-6116
ibo	-6117
▁ny	-6118
anat	-6119
▁are	-6120
▁bod	-6121
▁caf	-6122
itiva	-6123
▁arro	-6124
▁tema	-6125
tarias	-6126
▁entra	-6127
arredol	-6128
ilación	-6129
▁intres	-6130
▁manera	-6131
▁belchit	-6132
▁corazón	-6133
▁colección	-6134
▁destacata	-6135
bio	-6136
ibe	-6137
jal	-6138
lah	-6139
now	-6140
tim	-6141
eppe	-6142
ller	-6143
▁solar	-6144
anvista	-6145
▁fusión	-6146
▁lechis	-6147
▁molina	-6148
panthera	-6149
▁joaquín	-6150
▁monegros	-6151
▁olimpico	-6152
▁adverbios	-6153
▁succesión	-6154
cs	-6155
cín	-6156
alaz	-6157
oper	-6158
yito	-6159
▁apre	-6160
▁diam	-6161
quista	-6162
▁supos	-6163
▁vasca	-6164
iuseppe	-6165
▁decadas	-6166
▁habendo	-6167
▁diversos	-6168
▁culturals	-6169
▁literaria	-6170
▁categorías	-6171
▁cup	-6172
grafo	-6173
nomin	-6174
▁data	-6175
▁stor	-6176
iencia	-6177
▁danés	-6178
▁ueito	-6179
▁vocab	-6180
▁sentiu	-6181
▁conquir	-6182
▁armenios	-6183
▁borgonya	-6184
▁chirmans	-6185
▁francesas	-6186
▁protechita	-6187
▁relativament	-6188
oa	-6189
iau	-6190
met	-6191
aven	-6192
kins	-6193
ohio	-6194
plan	-6195
▁lag	-6196
▁she	-6197
▁toz	-6198
aguen	-6199
enata	-6200
icosa	-6201
▁tram	-6202
▁ellos	-6203
▁concil	-6204
▁howard	-6205
▁perque	-6206
▁bestiar	-6207
▁chistau	-6208
▁devanta	-6209
▁carbonio	-6210
▁recursos	-6211
▁standard	-6212
▁consiguió	-6213
▁deportivo	-6214
▁filosofía	-6215
▁treballar	-6216
▁cherusalem	-6217
▁etimolochía	-6218
▁scientifica	-6219
arco	-6220
clas	-6221
eixe	-6222
ísmo	-6223
▁jer	-6224
costa	-6225
▁maqu	-6226
itivos	-6227
▁disol	-6228
▁ideya	-6229
▁setio	-6230
▁figuer	-6231
▁javier	-6232
▁precip	-6233
▁concier	-6234
▁reforma	-6235
▁freqüencia	-6236
▁castellanom	-6237
ál	-6238
▁gó	-6239
chin	-6240
quín	-6241
▁nov	-6242
colmo	-6243
inger	-6244
latos	-6245
manas	-6246
vanni	-6247
▁patri	-6248
▁razón	-6249
anchego	-6250
ografía	-6251
▁mandato	-6252
▁montany	-6253
▁pardina	-6254
▁comporta	-6255
▁consiste	-6256
▁convirtió	-6257
▁subchuntivo	-6258
▁nacionalista	-6259
bis	-6260
uda	-6261
dorf	-6262
tosa	-6263
▁foz	-6264
▁hot	-6265
▁pit	-6266
▁tun	-6267
▁vac	-6268
oscar	-6269
quena	-6270
icismo	-6271
▁formó	-6272
▁líder	-6273
▁andreu	-6274
▁feitas	-6275
▁prebas	-6276
▁armenia	-6277
▁piedras	-6278
▁reciben	-6279
▁renania	-6280
▁nombrato	-6281
aeropuerto	-6282
▁patronals	-6283
/,	-6284
zá	-6285
fan	-6286
ieta	-6287
leto	-6288
▁dió	-6289
▁fay	-6290
▁sul	-6291
▁tig	-6292
▁tru	-6293
adera	-6294
▁gand	-6295
▁mala	-6296
▁ofre	-6297
▁veye	-6298
entals	-6299
▁extra	-6300
▁pueda	-6301
▁exclus	-6302
▁árbols	-6303
▁naixedero	-6304
▁mayestrato	-6305
▁montenegro	-6306
▁posteriors	-6307
mil	-6308
zio	-6309
olla	-6310
ológ	-6311
ucos	-6312
apest	-6313
▁fort	-6314
▁main	-6315
▁sens	-6316
ccions	-6317
▁insta	-6318
▁tamas	-6319
▁maximo	-6320
▁mayors	-6321
▁sonito	-6322
▁valent	-6323
olochías	-6324
▁barbara	-6325
▁derivau	-6326
▁puertos	-6327
▁intervocal	-6328
▁prencipato	-6329
▁institucions	-6330
▁perteneixeba	-6331
▁confederación	-6332
ete	-6333
has	-6334
tic	-6335
uza	-6336
trar	-6337
▁ceb	-6338
▁lam	-6339
▁lux	-6340
▁riv	-6341
▁rol	-6342
falia	-6343
▁unos	-6344
▁vega	-6345
fectos	-6346
umental	-6347
▁atleta	-6348
▁sustan	-6349
▁creyato	-6350
▁publicó	-6351
▁rematan	-6352
imentación	-6353
▁comercials	-6354
▁naturalista	-6355
▁descendients	-6356
▁construccions	-6357
▁ku	-6358
▁od	-6359
miro	-6360
mons	-6361
▁beb	-6362
▁tok	-6363
▁tub	-6364
▁guar	-6365
▁piel	-6366
▁raso	-6367
00000.	-6368
teruel	-6369
▁anglo	-6370
▁belga	-6371
▁incre	-6372
itarios	-6373
▁andrés	-6374
▁leyenda	-6375
australia	-6376
▁principio	-6377
▁archentina	-6378
gi	-6379
▁“	-6380
inio	-6381
kara	-6382
mano	-6383
▁bab	-6384
anyos	-6385
venia	-6386
▁pint	-6387
▁vive	-6388
iellos	-6389
▁carne	-6390
▁curta	-6391
▁clases	-6392
▁penyas	-6393
▁privil	-6394
▁conoixer	-6395
▁personal	-6396
▁quedando	-6397
presidents	-6398
▁aconsiguió	-6399
▁entrenador	-6400
ré	-6401
év	-6402
inn	-6403
reb	-6404
▁hu	-6405
udas	-6406
▁zur	-6407
antar	-6408
torio	-6409
▁rico	-6410
▁fuero	-6411
▁persa	-6412
▁plano	-6413
▁refus	-6414
▁tirol	-6415
▁impres	-6416
▁jersey	-6417
▁clasico	-6418
▁debanta	-6419
▁problema	-6420
▁cheografía	-6421
acer	-6422
apor	-6423
edif	-6424
igna	-6425
soci	-6426
▁kra	-6427
▁ses	-6428
▁vat	-6429
echio	-6430
manda	-6431
▁gana	-6432
▁glob	-6433
▁love	-6434
▁armas	-6435
▁cutio	-6436
▁jorge	-6437
▁meter	-6438
▁volun	-6439
rondiss	-6440
ulación	-6441
▁baixas	-6442
▁tipico	-6443
hamburgo	-6444
▁estable	-6445
estendill	-6446
instituto	-6447
▁flandres	-6448
▁navarros	-6449
▁presonal	-6450
indicativo	-6451
▁diferencias	-6452
▁nacionalismo	-6453
fi	-6454
hos	-6455
rir	-6456
sud	-6457
bals	-6458
cata	-6459
chug	-6460
hire	-6461
▁ing	-6462
▁pia	-6463
esquí	-6464
estru	-6465
▁hard	-6466
▁leit	-6467
iación	-6468
▁calor	-6469
▁latin	-6470
▁refle	-6471
▁bellos	-6472
▁uellos	-6473
▁verbal	-6474
▁tampoco	-6475
▁baptista	-6476
▁europeas	-6477
▁revuelta	-6478
▁soldatos	-6479
▁christian	-6480
▁documento	-6481
diz	-6482
ted	-6483
anci	-6484
ctar	-6485
dito	-6486
isco	-6487
pron	-6488
rand	-6489
tata	-6490
tons	-6491
▁hal	-6492
▁sup	-6493
anova	-6494
atern	-6495
avera	-6496
iseta	-6497
utsch	-6498
▁chem	-6499
▁colo	-6500
▁checo	-6501
▁fortal	-6502
▁pensar	-6503
▁mongols	-6504
▁perduga	-6505
arrondiss	-6506
▁perpinyán	-6507
▁relichioso	-6508
▁treballadors	-6509
wo	-6510
str	-6511
vió	-6512
▁ef	-6513
urno	-6514
cials	-6515
iente	-6516
▁cors	-6517
▁cult	-6518
ciones	-6519
▁carga	-6520
▁loren	-6521
▁paris	-6522
▁pavlo	-6523
▁vivos	-6524
▁weimar	-6525
ariament	-6526
▁artifici	-6527
▁budapest	-6528
▁existiba	-6529
▁prenendo	-6530
▁marruecos	-6531
▁potencias	-6532
▁prenuncia	-6533
▁terrestre	-6534
▁trescruza	-6535
▁relichiosa	-6536
▁chermanicas	-6537
▁denominacions	-6538
ju	-6539
ati	-6540
ika	-6541
oca	-6542
old	-6543
ider	-6544
iron	-6545
icula	-6546
liter	-6547
enario	-6548
▁pietz	-6549
▁muriel	-6550
▁neolat	-6551
▁perdió	-6552
▁tenito	-6553
▁anthony	-6554
▁especta	-6555
▁mexicán	-6556
▁refiere	-6557
▁tecnica	-6558
▁wilhelm	-6559
▁afluyent	-6560
▁dividito	-6561
▁eclesias	-6562
▁encomenz	-6563
▁giuseppe	-6564
▁guitarra	-6565
▁cordelera	-6566
▁pantalons	-6567
▁literalment	-6568
ary	-6569
wor	-6570
enco	-6571
iosa	-6572
usti	-6573
armen	-6574
emont	-6575
igual	-6576
plana	-6577
títol	-6578
▁arca	-6579
▁bang	-6580
▁teat	-6581
▁chard	-6582
▁praga	-6583
▁carmen	-6584
▁flamen	-6585
▁habría	-6586
▁disenyo	-6587
▁también	-6588
▁nucleyar	-6589
▁productora	-6590
▁secretario	-6591
▁aragonesismos	-6592
avo	-6593
anex	-6594
etta	-6595
▁tes	-6596
uerba	-6597
▁barra	-6598
▁humán	-6599
▁chabal	-6600
▁chunta	-6601
▁costau	-6602
▁berbers	-6603
▁caballo	-6604
▁cautivo	-6605
▁christo	-6606
▁ferrera	-6607
▁camiseta	-6608
▁escandin	-6609
▁sediment	-6610
▁archentín	-6611
▁conchunta	-6612
▁estrenata	-6613
▁adchectivos	-6614
▁desembolicó	-6615
▁petersburgo	-6616
▁altoaragoneses	-6617
▁respectivament	-6618
ocu	-6619
pín	-6620
▁dé	-6621
cico	-6622
equi	-6623
orio	-6624
▁bag	-6625
▁rat	-6626
▁almo	-6627
▁hall	-6628
▁nues	-6629
▁sale	-6630
▁grant	-6631
▁motor	-6632
▁agosto	-6633
▁cantos	-6634
▁chuego	-6635
▁fegura	-6636
yolochía	-6637
▁centros	-6638
▁escuelas	-6639
▁hispania	-6640
▁bizantins	-6641
▁;	-6642
eit	-6643
isi	-6644
non	-6645
uci	-6646
▁có	-6647
cato	-6648
cosa	-6649
dora	-6650
enca	-6651
undo	-6652
ieren	-6653
▁hein	-6654
▁poca	-6655
border	-6656
▁lisos	-6657
▁magno	-6658
▁tribu	-6659
cherman	-6660
puertos	-6661
▁carbon	-6662
▁restos	-6663
nominato	-6664
▁costato	-6665
▁estadio	-6666
▁nicolau	-6667
urtemberg	-6668
▁complexo	-6669
▁dentrada	-6670
▁napolión	-6671
▁redolata	-6672
▁asasinato	-6673
▁berenguer	-6674
▁coalición	-6675
▁construyó	-6676
▁mediterranio	-6677
zy	-6678
kor	-6679
sam	-6680
feld	-6681
igor	-6682
isca	-6683
pers	-6684
tadt	-6685
▁fas	-6686
▁jon	-6687
▁kur	-6688
▁nas	-6689
equus	-6690
maire	-6691
▁goya	-6692
▁nego	-6693
▁trop	-6694
▁julio	-6695
▁viene	-6696
dística	-6697
ucraína	-6698
▁valles	-6699
▁elector	-6700
▁especif	-6701
occitania	-6702
▁giovanni	-6703
▁obchectos	-6704
nt	-6705
sp	-6706
esf	-6707
its	-6708
kel	-6709
tag	-6710
gart	-6711
▁day	-6712
▁sap	-6713
▁impl	-6714
▁pand	-6715
animal	-6716
estude	-6717
▁moros	-6718
▁style	-6719
▁tardi	-6720
▁berber	-6721
▁dentra	-6722
▁embota	-6723
alcanyiz	-6724
enerchía	-6725
▁nobleza	-6726
▁partido	-6727
▁romería	-6728
▁filologo	-6729
▁minerals	-6730
▁potencia	-6731
▁sobrepuerto	-6732
▁vocabulario	-6733
arrondissement	-6734
▁posteriorment	-6735
ku	-6736
hal	-6737
sac	-6738
▁bé	-6739
▁ov	-6740
olar	-6741
ware	-6742
▁ale	-6743
▁fix	-6744
▁hus	-6745
▁igu	-6746
▁lap	-6747
▁pec	-6748
endas	-6749
▁anal	-6750
▁cell	-6751
▁locu	-6752
'00,00	-6753
tempor	-6754
▁rebel	-6755
▁trata	-6756
▁influy	-6757
▁prohib	-6758
▁serbio	-6759
alifonso	-6760
▁(0.000)	-6761
▁cuentas	-6762
▁estrate	-6763
▁producen	-6764
▁chugadors	-6765
fos	-6766
fta	-6767
orb	-6768
emen	-6769
erba	-6770
onía	-6771
▁rip	-6772
▁sit	-6773
coron	-6774
omorf	-6775
▁cres	-6776
▁ciclo	-6777
▁femin	-6778
▁hills	-6779
▁rueda	-6780
chipiel	-6781
▁dintro	-6782
▁guinea	-6783
▁monzón	-6784
▁tipica	-6785
▁cuencas	-6786
▁esfensa	-6787
▁fuertes	-6788
▁tenendo	-6789
▁academia	-6790
▁françois	-6791
▁sudafrica	-6792
▁autoridatz	-6793
▁relacionato	-6794
▁substantivo	-6795
fes	-6796
jan	-6797
lam	-6798
plo	-6799
vii	-6800
egue	-6801
inae	-6802
inus	-6803
ères	-6804
▁kat	-6805
▁barr	-6806
▁cass	-6807
iellas	-6808
animals	-6809
condato	-6810
investi	-6811
▁destin	-6812
▁negros	-6813
▁reserva	-6814
posicions	-6815
▁orichens	-6816
▁parlants	-6817
▁perfecto	-6818
▁habsburgo	-6819
▁molimento	-6820
▁biblioteca	-6821
▁dimensions	-6822
ave	-6823
dol	-6824
him	-6825
▁gi	-6826
▁up	-6827
agua	-6828
asen	-6829
bury	-6830
sieg	-6831
▁bez	-6832
▁dac	-6833
▁esg	-6834
▁sha	-6835
matas	-6836
▁elab	-6837
▁nieu	-6838
▁escla	-6839
▁neutr	-6840
▁pened	-6841
quercus	-6842
▁comité	-6843
▁mezcla	-6844
▁pelegr	-6845
▁viento	-6846
autonomía	-6847
amostranza	-6848
▁apareixen	-6849
▁documentato	-6850
▁temperaturas	-6851
▁0000000000000.	-6852
dea	-6853
iff	-6854
kov	-6855
omag	-6856
yals	-6857
▁mid	-6858
catal	-6859
ische	-6860
▁bill	-6861
▁chib	-6862
▁dona	-6863
izoron	-6864
▁casco	-6865
▁etapa	-6866
▁ganar	-6867
▁lonch	-6868
▁recup	-6869
celonés	-6870
▁calzas	-6871
▁estaus	-6872
▁luxemb	-6873
▁solana	-6874
▁fundato	-6875
▁lisbona	-6876
▁momento	-6877
▁catolico	-6878
▁incluyen	-6879
▁resultau	-6880
▁equipación	-6881
▁historicos	-6882
emo	-6883
got	-6884
▁jr	-6885
▁oz	-6886
aren	-6887
expl	-6888
▁ign	-6889
▁you	-6890
▁jazz	-6891
▁sand	-6892
▁urss	-6893
▁xord	-6894
ingham	-6895
▁mitat	-6896
▁paulo	-6897
▁redon	-6898
▁empeci	-6899
▁frisón	-6900
▁perder	-6901
▁poseye	-6902
▁anglesa	-6903
▁cadagún	-6904
▁capítol	-6905
▁tecnicas	-6906
▁sovietico	-6907
0)	-6908
hara	-6909
ifer	-6910
star	-6911
tiop	-6912
▁did	-6913
anchú	-6914
▁bres	-6915
▁coex	-6916
▁doug	-6917
▁filo	-6918
▁inco	-6919
electr	-6920
icidat	-6921
▁absor	-6922
▁canya	-6923
▁palma	-6924
▁hombre	-6925
▁restas	-6926
▁stalin	-6927
▁andorra	-6928
▁ubierta	-6929
▁dividita	-6930
▁acompanya	-6931
▁divisions	-6932
▁university	-6933
▁incheniería	-6934
▁transilvania	-6935
bet	-6936
dit	-6937
echo	-6938
oros	-6939
allos	-6940
argel	-6941
grado	-6942
iland	-6943
oclas	-6944
tadura	-6945
▁celti	-6946
▁parar	-6947
▁unico	-6948
▁churid	-6949
▁crosta	-6950
▁harris	-6951
▁erosión	-6952
▁patrick	-6953
▁bruselas	-6954
▁periodos	-6955
▁desconoix	-6956
esportistas	-6957
▁documentau	-6958
▁incluyindo	-6959
zu	-6960
pse	-6961
astí	-6962
cien	-6963
duce	-6964
esos	-6965
gers	-6966
icau	-6967
mica	-6968
▁cen	-6969
▁señ	-6970
▁tab	-6971
▁zuc	-6972
exeya	-6973
patos	-6974
▁cogn	-6975
▁sebas	-6976
tolomeu	-6977
▁escala	-6978
▁ferrer	-6979
▁unatro	-6980
orquesta	-6981
▁mineral	-6982
▁pastors	-6983
▁periglo	-6984
▁conoixen	-6985
▁senyoría	-6986
▁substitu	-6987
▁construir	-6988
▁compuestos	-6989
pennsilvania	-6990
▁tecnolochía	-6991
rig	-6992
chac	-6993
chud	-6994
udal	-6995
▁orb	-6996
▁sid	-6997
▁veh	-6998
abeth	-6999
toron	-7000
▁advo	-7001
▁perú	-7002
▁plen	-7003
▁prer	-7004
▁cursa	-7005
▁exped	-7006
▁extre	-7007
▁night	-7008
▁saura	-7009
albacet	-7010
▁observ	-7011
▁patrón	-7012
▁blancas	-7013
▁estrela	-7014
▁mediano	-7015
▁occitan	-7016
▁venezol	-7017
▁posesión	-7018
▁construito	-7019
▁deputación	-7020
úa	-7021
enz	-7022
rei	-7023
sem	-7024
sub	-7025
zer	-7026
''»,	-7027
alav	-7028
chio	-7029
clar	-7030
etti	-7031
urus	-7032
údar	-7033
▁bue	-7034
▁tún	-7035
▁ases	-7036
entato	-7037
ifican	-7038
▁allen	-7039
▁ciril	-7040
▁estim	-7041
cronica	-7042
vacions	-7043
▁conqui	-7044
▁diario	-7045
▁famosa	-7046
▁medici	-7047
▁piloto	-7048
▁pareixe	-7049
▁amaneixió	-7050
▁castillón	-7051
▁esportiva	-7052
▁diplomatico	-7053
cle	-7054
lis	-7055
thy	-7056
ube	-7057
cara	-7058
cipl	-7059
omer	-7060
tita	-7061
wski	-7062
▁bec	-7063
▁cue	-7064
▁fid	-7065
▁rud	-7066
▁vei	-7067
barde	-7068
▁maor	-7069
▁pend	-7070
▁pere	-7071
estina	-7072
▁silva	-7073
▁siria	-7074
▁venci	-7075
▁gracia	-7076
▁hebreu	-7077
▁benedet	-7078
▁veyemos	-7079
elementos	-7080
▁altarias	-7081
occidental	-7082
ctic	-7083
edes	-7084
ulla	-7085
wehr	-7086
▁haw	-7087
ambra	-7088
ansas	-7089
aviar	-7090
erson	-7091
ometr	-7092
▁beat	-7093
▁cerd	-7094
altros	-7095
guerra	-7096
iernos	-7097
sectos	-7098
▁badía	-7099
▁fuego	-7100
▁horas	-7101
▁jones	-7102
▁leyer	-7103
▁ninvi	-7104
familia	-7105
itarias	-7106
▁secund	-7107
▁ambient	-7108
▁descrip	-7109
▁femenín	-7110
▁colombia	-7111
▁concilio	-7112
▁primavera	-7113
▁reconstru	-7114
▁construita	-7115
jac	-7116
vía	-7117
▁ay	-7118
chan	-7119
idio	-7120
psoe	-7121
quis	-7122
tela	-7123
▁dam	-7124
quesa	-7125
▁amor	-7126
▁coda	-7127
▁modo	-7128
gament	-7129
▁primo	-7130
▁scott	-7131
quistán	-7132
▁cargos	-7133
▁estudi	-7134
▁evitar	-7135
▁malaga	-7136
▁pietro	-7137
▁tudela	-7138
▁accions	-7139
▁dificil	-7140
▁propiet	-7141
▁escribió	-7142
▁estudeos	-7143
▁treballó	-7144
▁contempor	-7145
▁ganadería	-7146
▁subchecto	-7147
▁formacions	-7148
.),	-7149
▁ax	-7150
cesa	-7151
▁pil	-7152
▁qué	-7153
heban	-7154
▁amés	-7155
▁nueu	-7156
▁unit	-7157
acceso	-7158
▁carlo	-7159
▁lewis	-7160
▁salut	-7161
▁sexma	-7162
▁sigan	-7163
▁smith	-7164
▁aviento	-7165
▁cheorch	-7166
▁directo	-7167
▁convento	-7168
▁estatuto	-7169
▁femenina	-7170
▁visigodo	-7171
▁electrica	-7172
▁economista	-7173
▁emplegando	-7174
▁protechito	-7175
▁revolucion	-7176
cán	-7177
try	-7178
uvi	-7179
▁ty	-7180
bour	-7181
iras	-7182
orar	-7183
▁cit	-7184
anglo	-7185
ordon	-7186
échar	-7187
▁abad	-7188
▁acep	-7189
▁bada	-7190
▁punk	-7191
onimos	-7192
ricola	-7193
ázquez	-7194
▁galia	-7195
▁pesca	-7196
▁tarde	-7197
▁valde	-7198
▁atribu	-7199
▁comprom	-7200
▁escaici	-7201
▁viviban	-7202
▁empordán	-7203
▁fablants	-7204
▁artistica	-7205
▁preferent	-7206
▁presentar	-7207
▁ribagorzano	-7208
▁competicions	-7209
fib	-7210
tiu	-7211
vra	-7212
phia	-7213
talo	-7214
▁ira	-7215
▁llo	-7216
▁nik	-7217
integ	-7218
souri	-7219
tants	-7220
▁alan	-7221
▁capa	-7222
▁hern	-7223
▁prod	-7224
chinia	-7225
portug	-7226
▁filip	-7227
▁fraga	-7228
▁poque	-7229
▁doctor	-7230
▁libres	-7231
▁tienga	-7232
▁vivien	-7233
▁(000-000	-7234
▁auxiliar	-7235
▁charraba	-7236
▁contexto	-7237
▁ocasions	-7238
▁pronunci	-7239
▁decumenta	-7240
▁campionatos	-7241
▁concentración	-7242
né	-7243
bai	-7244
pob	-7245
meso	-7246
para	-7247
pren	-7248
trit	-7249
▁fat	-7250
▁rig	-7251
tolas	-7252
▁enem	-7253
▁kars	-7254
▁mars	-7255
▁pont	-7256
ipedia	-7257
tricto	-7258
uestas	-7259
▁green	-7260
▁gómez	-7261
▁henri	-7262
▁urbán	-7263
▁acción	-7264
▁afecta	-7265
▁borcha	-7266
▁formau	-7267
▁marcha	-7268
▁dentrar	-7269
▁pallars	-7270
chugadors	-7271
ionalment	-7272
▁bombarde	-7273
▁libertat	-7274
▁incheniero	-7275
▁chacimiento	-7276
▁fundamental	-7277
▁guadalaviar	-7278
▁influencias	-7279
▁desaparición	-7280
àr	-7281
cop	-7282
dot	-7283
fri	-7284
qua	-7285
ally	-7286
igar	-7287
uste	-7288
artes	-7289
trans	-7290
▁dels	-7291
▁foot	-7292
pierre	-7293
▁almor	-7294
▁basco	-7295
▁demos	-7296
▁foces	-7297
▁prada	-7298
bilidat	-7299
padding	-7300
sterdam	-7301
▁cazata	-7302
▁diners	-7303
▁fabric	-7304
▁grande	-7305
▁tribus	-7306
▁urugua	-7307
▁derrota	-7308
▁mercato	-7309
▁cadaguna	-7310
▁melitant	-7311
▁paisache	-7312
▁lonchitut	-7313
▁pareixita	-7314
▁presonache	-7315
▁pronombres	-7316
▁cellpadding	-7317
ah	-7318
sn	-7319
arín	-7320
bras	-7321
egar	-7322
tien	-7323
▁end	-7324
▁rut	-7325
▁sis	-7326
denas	-7327
ensas	-7328
iendo	-7329
istes	-7330
▁marx	-7331
▁pros	-7332
▁rosa	-7333
icardo	-7334
▁blues	-7335
▁estat	-7336
adament	-7337
primera	-7338
▁carden	-7339
▁claude	-7340
▁coinci	-7341
▁organo	-7342
▁qualas	-7343
▁obtenió	-7344
▁vlaquia	-7345
▁agricola	-7346
▁cercuito	-7347
▁creyoron	-7348
▁mamiferos	-7349
▁ocupación	-7350
▁operación	-7351
▁recorrito	-7352
▁residencia	-7353
▁compleganza	-7354
▁complemento	-7355
?''	-7356
bul	-7357
arri	-7358
chos	-7359
eman	-7360
wick	-7361
▁abd	-7362
▁apr	-7363
▁lun	-7364
cando	-7365
deras	-7366
erías	-7367
lands	-7368
pardo	-7369
zález	-7370
üerro	-7371
▁alas	-7372
▁coll	-7373
▁life	-7374
▁savo	-7375
▁convo	-7376
▁esley	-7377
▁levar	-7378
▁provo	-7379
▁vital	-7380
luencia	-7381
▁normas	-7382
▁resist	-7383
▁testim	-7384
▁valura	-7385
▁vlacos	-7386
cripción	-7387
▁douglas	-7388
▁distingu	-7389
▁italiano	-7390
▁oracions	-7391
▁particlas	-7392
▁belarrusia	-7393
▁participación	-7394
aur	-7395
cum	-7396
nie	-7397
ond	-7398
wen	-7399
▁(«	-7400
tich	-7401
▁dau	-7402
▁gam	-7403
▁nie	-7404
▁sho	-7405
iseau	-7406
ritas	-7407
árbol	-7408
▁pour	-7409
arroya	-7410
▁casal	-7411
▁cated	-7412
instein	-7413
▁adapta	-7414
▁compet	-7415
▁creyata	-7416
▁indicar	-7417
▁interna	-7418
▁jackson	-7419
▁minoría	-7420
▁pintura	-7421
▁prefixo	-7422
▁salinas	-7423
grammaire	-7424
▁aspectos	-7425
chipielago	-7426
▁desemboca	-7427
▁esdevenir	-7428
▁cheografica	-7429
fab	-7430
alas	-7431
ceae	-7432
cham	-7433
copa	-7434
inau	-7435
zada	-7436
▁fur	-7437
▁lyn	-7438
▁mix	-7439
avent	-7440
dució	-7441
undes	-7442
▁engl	-7443
▁kiev	-7444
▁mend	-7445
▁mono	-7446
cticut	-7447
tiello	-7448
▁arcos	-7449
▁brown	-7450
▁pende	-7451
andorra	-7452
▁boston	-7453
▁dentró	-7454
▁dispos	-7455
▁poesía	-7456
▁verdad	-7457
necticut	-7458
▁atomico	-7459
▁español	-7460
▁mariano	-7461
▁palatal	-7462
▁zaguero	-7463
aparición	-7464
▁campania	-7465
▁completa	-7466
▁estreito	-7467
▁gregorio	-7468
▁christoph	-7469
▁periodica	-7470
▁desembocadura	-7471
▁renaixentista	-7472
rió	-7473
sus	-7474
utz	-7475
)'',	-7476
eder	-7477
fron	-7478
ibón	-7479
ixes	-7480
tain	-7481
▁(0)	-7482
▁aga	-7483
▁gaz	-7484
▁tir	-7485
macht	-7486
texas	-7487
ulato	-7488
▁elim	-7489
▁gras	-7490
▁hese	-7491
▁polo	-7492
▁rele	-7493
▁trin	-7494
cesión	-7495
▁arena	-7496
▁bafta	-7497
▁dando	-7498
▁deixó	-7499
▁retor	-7500
▁satel	-7501
▁templ	-7502
▁uerba	-7503
ematica	-7504
segunda	-7505
▁eslavo	-7506
▁fiscal	-7507
▁orient	-7508
amientos	-7509
zamiento	-7510
▁perdito	-7511
▁roberto	-7512
arcebispe	-7513
▁000-000.	-7514
▁basilica	-7515
▁batallas	-7516
▁gonzález	-7517
▁musulmán	-7518
▁posibles	-7519
ificacions	-7520
wurtemberg	-7521
▁comprende	-7522
▁gubernador	-7523
▁prencipiar	-7524
gh	-7525
nau	-7526
vet	-7527
ñez	-7528
▁mm	-7529
iber	-7530
ollo	-7531
▁lla	-7532
alban	-7533
ecera	-7534
ranio	-7535
tioron	-7536
▁absol	-7537
▁fines	-7538
▁guerr	-7539
▁gúdar	-7540
tención	-7541
▁alcalá	-7542
▁cornel	-7543
▁peixes	-7544
▁piezas	-7545
▁quedan	-7546
▁teresa	-7547
penaguen	-7548
▁columna	-7549
asambleya	-7550
▁herencio	-7551
▁pakistán	-7552
▁britanicos	-7553
▁chacimientos	-7554
▁introducción	-7555
gy	-7556
fat	-7557
fen	-7558
foz	-7559
nis	-7560
èrs	-7561
▁hy	-7562
edad	-7563
izos	-7564
resa	-7565
ules	-7566
zión	-7567
▁aim	-7568
▁cai	-7569
▁gen	-7570
▁moz	-7571
▁món	-7572
andar	-7573
▁anex	-7574
▁fals	-7575
▁sanz	-7576
▁tony	-7577
ground	-7578
urchel	-7579
▁andré	-7580
▁disen	-7581
▁mirar	-7582
▁semic	-7583
▁testa	-7584
▁vatic	-7585
capital	-7586
▁deixar	-7587
▁ferram	-7588
▁hierba	-7589
▁linias	-7590
▁marino	-7591
▁parlar	-7592
▁arquite	-7593
▁calidat	-7594
▁lechisl	-7595
westfalia	-7596
▁mandatas	-7597
barcelonés	-7598
▁determina	-7599
▁democracia	-7600
▁publicación	-7601
ou	-7602
▁)	-7603
dau	-7604
fis	-7605
wan	-7606
ños	-7607
▁iz	-7608
cual	-7609
iers	-7610
onda	-7611
▁asi	-7612
ampla	-7613
estud	-7614
▁coun	-7615
▁reno	-7616
▁wolf	-7617
chabal	-7618
electu	-7619
▁feder	-7620
▁naval	-7621
▁opera	-7622
▁retir	-7623
mosfera	-7624
▁cambeó	-7625
▁christ	-7626
▁dengún	-7627
▁ideyas	-7628
▁quiere	-7629
▁reflex	-7630
▁cruzata	-7631
▁muderna	-7632
▁contiene	-7633
▁dictadura	-7634
▁habitadors	-7635
▁neolatinas	-7636
▁ortografía	-7637
▁perteneixen	-7638
independencia	-7639
ün	-7640
ics	-7641
lit	-7642
nik	-7643
oto	-7644
rés	-7645
sec	-7646
▁nu	-7647
chap	-7648
ebre	-7649
ugas	-7650
vata	-7651
▁act	-7652
▁aur	-7653
▁rug	-7654
anzas	-7655
▁dato	-7656
▁pach	-7657
▁patr	-7658
▁remo	-7659
misión	-7660
▁cabez	-7661
▁colab	-7662
▁cuent	-7663
▁elect	-7664
▁partz	-7665
▁saber	-7666
isterio	-7667
▁garcés	-7668
▁gredos	-7669
▁rurals	-7670
▁unatra	-7671
▁andalus	-7672
▁archivo	-7673
▁sarrato	-7674
▁cirilico	-7675
▁habitual	-7676
▁hipotesi	-7677
▁barrancos	-7678
▁emplegata	-7679
▁publicato	-7680
▁rematando	-7681
-0000-000-0	-7682
▁historiadors	-7683
":	-7684
.:	-7685
té	-7686
àn	-7687
bec	-7688
▁sk	-7689
mira	-7690
odio	-7691
osas	-7692
erata	-7693
renos	-7694
stein	-7695
ustin	-7696
▁#000	-7697
▁etno	-7698
inyena	-7699
tierra	-7700
▁azuls	-7701
▁compr	-7702
▁fosil	-7703
▁siglo	-7704
▁suble	-7705
▁batall	-7706
▁benito	-7707
▁churis	-7708
▁marcel	-7709
▁alazetz	-7710
▁alfonso	-7711
▁mugants	-7712
▁quiesto	-7713
▁radices	-7714
▁creyando	-7715
▁derivato	-7716
▁nordeste	-7717
▁recibito	-7718
▁versions	-7719
▁freqüents	-7720
▁prencipioron	-7721
ose	-7722
tax	-7723
zig	-7724
▁wy	-7725
iero	-7726
imon	-7727
poli	-7728
riel	-7729
▁peñ	-7730
▁syl	-7731
antil	-7732
escal	-7733
garch	-7734
macia	-7735
▁adam	-7736
▁back	-7737
▁dias	-7738
▁incl	-7739
▁meso	-7740
▁toro	-7741
▁vich	-7742
arabia	-7743
ciudat	-7744
inchia	-7745
planta	-7746
▁asoci	-7747
▁deixa	-7748
▁polic	-7749
▁borbón	-7750
▁combat	-7751
▁cursas	-7752
▁metals	-7753
▁oliver	-7754
▁roncal	-7755
▁alianza	-7756
▁charrar	-7757
▁enrique	-7758
▁minchar	-7759
▁toponim	-7760
▁controlar	-7761
▁dirichent	-7762
▁explorador	-7763
▁portuguesa	-7764
▁lingüisticos	-7765
lle	-7766
sel	-7767
uli	-7768
üés	-7769
alco	-7770
chir	-7771
cris	-7772
cull	-7773
erac	-7774
isma	-7775
jean	-7776
▁but	-7777
▁ubr	-7778
onico	-7779
▁nier	-7780
▁oper	-7781
▁opin	-7782
israel	-7783
matica	-7784
tionna	-7785
▁biens	-7786
▁desen	-7787
▁media	-7788
▁terra	-7789
▁titán	-7790
filosof	-7791
icismos	-7792
▁cautiv	-7793
▁margar	-7794
▁molins	-7795
▁convers	-7796
▁decidió	-7797
▁multipl	-7798
▁sobirán	-7799
▁continar	-7800
▁fenomeno	-7801
▁malautía	-7802
▁despoblau	-7803
▁valenciana	-7804
▁desapareixer	-7805
ild	-7806
òst	-7807
agra	-7808
lans	-7809
pola	-7810
▁gua	-7811
▁lad	-7812
isfer	-7813
ultat	-7814
ustra	-7815
venir	-7816
▁chig	-7817
▁dubl	-7818
▁raza	-7819
▁rend	-7820
cusión	-7821
hausen	-7822
▁depos	-7823
▁picas	-7824
▁plans	-7825
▁visto	-7826
▁dioses	-7827
▁invers	-7828
▁nación	-7829
▁chenova	-7830
▁chentil	-7831
▁encluye	-7832
▁formula	-7833
▁georges	-7834
operación	-7835
wehrmacht	-7836
▁cristián	-7837
▁manstein	-7838
▁ortodoxa	-7839
▁quatreno	-7840
▁quedoron	-7841
▁escritura	-7842
▁fortaleza	-7843
▁irregulars	-7844
▁rechionals	-7845
▁cheneralment	-7846
▁prencipiando	-7847
ei	-7848
ân	-7849
ος	-7850
▁·	-7851
lyn	-7852
oli	-7853
unn	-7854
▁lem	-7855
▁zen	-7856
monte	-7857
teros	-7858
▁arco	-7859
▁best	-7860
▁emir	-7861
▁moto	-7862
▁saud	-7863
madura	-7864
▁cambr	-7865
▁claro	-7866
▁dedic	-7867
▁paret	-7868
dicción	-7869
gacions	-7870
polonia	-7871
romanya	-7872
▁cambio	-7873
▁comand	-7874
▁corpor	-7875
▁razons	-7876
▁street	-7877
▁terror	-7878
cialment	-7879
ibilidat	-7880
parlants	-7881
▁bernard	-7882
▁cambeyo	-7883
▁millars	-7884
▁ricardo	-7885
▁tortosa	-7886
▁emplegan	-7887
▁mayestro	-7888
▁permitió	-7889
▁intelectu	-7890
▁pandicosa	-7891
▁aleixandre	-7892
▁temporadas	-7893
▁conchunción	-7894
▁relacionatos	-7895
▁checoslovaquia	-7896
▁correspondient	-7897
ló	-7898
rs	-7899
vd	-7900
/00	-7901
jes	-7902
pis	-7903
cicl	-7904
coll	-7905
enaz	-7906
ermo	-7907
▁dip	-7908
▁nit	-7909
▁orí	-7910
▁une	-7911
ockey	-7912
▁llob	-7913
▁pica	-7914
▁rode	-7915
iertos	-7916
▁0000-	-7917
▁analo	-7918
▁eslov	-7919
▁otros	-7920
▁podes	-7921
▁prior	-7922
cepción	-7923
▁academ	-7924
▁barrio	-7925
▁perten	-7926
ganistán	-7927
▁masclos	-7928
▁napolit	-7929
▁diametro	-7930
▁podioron	-7931
untamiento	-7932
▁desapareixió	-7933
cc	-7934
fs	-7935
ji	-7936
mem	-7937
▁cf	-7938
▁ic	-7939
chet	-7940
foro	-7941
gata	-7942
icum	-7943
reta	-7944
▁caz	-7945
▁dei	-7946
baixa	-7947
ichén	-7948
▁anne	-7949
▁espl	-7950
▁hugo	-7951
▁suma	-7952
▁vaca	-7953
contin	-7954
▁arbus	-7955
▁chine	-7956
▁talla	-7957
▁camins	-7958
▁lozano	-7959
▁partid	-7960
▁pavill	-7961
astronom	-7962
▁maurice	-7963
▁mozarab	-7964
▁muralla	-7965
▁resulta	-7966
▁stanley	-7967
▁establir	-7968
▁heinrich	-7969
▁posicions	-7970
▁antigament	-7971
▁components	-7972
hom	-7973
ums	-7974
alar	-7975
deta	-7976
litu	-7977
tito	-7978
▁das	-7979
▁fib	-7980
▁sau	-7981
▁wik	-7982
estan	-7983
lesia	-7984
mesos	-7985
▁bail	-7986
▁stra	-7987
▁georg	-7988
▁inaug	-7989
especie	-7990
▁cooper	-7991
▁dimana	-7992
▁esclat	-7993
▁qualos	-7994
▁samuel	-7995
▁basarán	-7996
-000-0000	-7997
▁concreto	-7998
▁condatos	-7999
▁italians	-8000
▁alimentos	-8001
▁astronomo	-8002
▁conflicto	-8003
▁estendill	-8004
olochicament	-8005
▁mayoritaria	-8006
▁referencias	-8007
bes	-8008
ike	-8009
jón	-8010
ute	-8011
chea	-8012
guiz	-8013
idal	-8014
redo	-8015
▁aer	-8016
▁kal	-8017
▁kor	-8018
▁str	-8019
cient	-8020
óstol	-8021
▁anso	-8022
▁crei	-8023
▁educ	-8024
▁mons	-8025
▁reiv	-8026
anista	-8027
itatos	-8028
uerdos	-8029
▁fries	-8030
▁larga	-8031
▁saque	-8032
▁torro	-8033
uestran	-8034
▁arriba	-8035
▁verdat	-8036
interior	-8037
▁plurals	-8038
▁puertas	-8039
▁reculle	-8040
▁replega	-8041
▁romanos	-8042
▁saturno	-8043
▁serrano	-8044
▁castello	-8045
▁maritimo	-8046
▁valverde	-8047
▁producita	-8048
▁superiors	-8049
herzegovina	-8050
▁matematicas	-8051
▁posibilidat	-8052
▁nacionalistas	-8053
▁comportamiento	-8054
gun	-8055
lim	-8056
uró	-8057
▁0:	-8058
▁dc	-8059
aded	-8060
ance	-8061
atar	-8062
▁joe	-8063
▁tay	-8064
eland	-8065
ordia	-8066
▁000–	-8067
▁alco	-8068
▁ming	-8069
▁tell	-8070
▁wien	-8071
alidat	-8072
umbres	-8073
▁brian	-8074
▁mosén	-8075
▁ordin	-8076
▁panam	-8077
▁plena	-8078
▁caribe	-8079
▁paretz	-8080
▁plegan	-8081
▁premit	-8082
▁rasgos	-8083
▁remiro	-8084
▁unesco	-8085
▁united	-8086
asturián	-8087
▁aspecto	-8088
▁ficción	-8089
▁horizon	-8090
▁indefin	-8091
▁monches	-8092
▁diftongo	-8093
▁proclamó	-8094
▁cultismos	-8095
▁esperanto	-8096
▁relacionau	-8097
▁conoixencia	-8098
▁constituyen	-8099
▁instrumento	-8100
jun	-8101
ñoz	-8102
itau	-8103
▁0.0	-8104
▁mut	-8105
color	-8106
elich	-8107
encar	-8108
obser	-8109
üerre	-8110
▁fizo	-8111
▁forn	-8112
▁vest	-8113
ciella	-8114
▁agric	-8115
▁camer	-8116
▁hadri	-8117
▁patas	-8118
▁0000))	-8119
▁barbar	-8120
▁bretón	-8121
▁meyana	-8122
▁pierde	-8123
advogato	-8124
▁aliment	-8125
▁augusto	-8126
▁contras	-8127
▁discipl	-8128
▁0000-00.	-8129
▁caballos	-8130
▁deixando	-8131
▁hamburgo	-8132
▁musicals	-8133
establioron	-8134
oficialment	-8135
▁historicas	-8136
▁incorporación	-8137
bez	-8138
eyo	-8139
hat	-8140
maz	-8141
agón	-8142
cino	-8143
ilib	-8144
paul	-8145
vene	-8146
wart	-8147
▁arr	-8148
▁ker	-8149
▁lus	-8150
isten	-8151
miemb	-8152
regat	-8153
▁cany	-8154
▁miss	-8155
▁mund	-8156
▁opos	-8157
▁vías	-8158
aixata	-8159
onesia	-8160
▁baden	-8161
▁fondo	-8162
▁muela	-8163
▁ponte	-8164
▁trobó	-8165
emplego	-8166
értolas	-8167
▁caland	-8168
▁castel	-8169
▁columb	-8170
▁fuella	-8171
▁fueros	-8172
▁levant	-8173
▁savoya	-8174
▁almorab	-8175
▁cervera	-8176
▁cristal	-8177
▁declaró	-8178
▁liquido	-8179
▁memoria	-8180
▁sufixos	-8181
▁torismo	-8182
▁colonial	-8183
▁cubierta	-8184
▁petrolio	-8185
▁reacción	-8186
▁ciudadans	-8187
▁copenaguen	-8188
-:	-8189
cn	-8190
flo	-8191
hot	-8192
iac	-8193
urb	-8194
anga	-8195
gola	-8196
olid	-8197
oman	-8198
▁cle	-8199
▁neu	-8200
echip	-8201
ichán	-8202
▁adri	-8203
▁prem	-8204
▁sell	-8205
aparte	-8206
enberg	-8207
▁billy	-8208
▁elsón	-8209
▁lacos	-8210
▁tenis	-8211
▁tokio	-8212
iformes	-8213
▁pirine	-8214
▁silves	-8215
adverbio	-8216
▁fembras	-8217
▁fundata	-8218
▁reivind	-8219
▁sallent	-8220
-00000-00	-8221
▁belatros	-8222
▁estreita	-8223
▁football	-8224
▁esportivo	-8225
▁exercitos	-8226
▁grandaria	-8227
▁interiors	-8228
▁rechistro	-8229
▁asociación	-8230
▁estatounit	-8231
▁corresponden	-8232
▁scientificos	-8233
▁documentación	-8234
än	-8235
är	-8236
eae	-8237
gad	-8238
▁--	-8239
elun	-8240
ifra	-8241
loch	-8242
ness	-8243
paci	-8244
prin	-8245
▁pyr	-8246
▁vez	-8247
guard	-8248
honor	-8249
ladel	-8250
talle	-8251
tallo	-8252
undir	-8253
▁alia	-8254
▁brig	-8255
▁cing	-8256
▁east	-8257
▁nino	-8258
▁peña	-8259
▁plus	-8260
center	-8261
▁sacer	-8262
▁steph	-8263
cionals	-8264
ionismo	-8265
▁antrop	-8266
▁luitas	-8267
▁morfos	-8268
▁consumo	-8269
▁escocia	-8270
▁estatal	-8271
▁metamor	-8272
▁simples	-8273
erbaichán	-8274
▁abundant	-8275
▁embotada	-8276
▁ocuporon	-8277
▁serranía	-8278
-000-00000	-8279
▁alexander	-8280
▁caballero	-8281
▁lingüista	-8282
▁llobregat	-8283
▁menistros	-8284
▁recuperar	-8285
▁establindo	-8286
▁conferencia	-8287
▁guitarrista	-8288
bé	-8289
ym	-8290
ال	-8291
bot	-8292
het	-8293
ivi	-8294
nue	-8295
▁pá	-8296
amen	-8297
ença	-8298
main	-8299
ritz	-8300
▁vue	-8301
/0000	-8302
balat	-8303
ralba	-8304
ralde	-8305
rants	-8306
tador	-8307
umbre	-8308
urgos	-8309
valle	-8310
▁jord	-8311
▁sans	-8312
izadas	-8313
tiopia	-8314
▁(000)	-8315
▁black	-8316
▁calif	-8317
▁fuesa	-8318
▁garch	-8319
▁globo	-8320
▁legal	-8321
▁marab	-8322
encials	-8323
olitico	-8324
▁collas	-8325
▁isleta	-8326
▁poemas	-8327
▁temple	-8328
▁bulgaro	-8329
▁catalan	-8330
▁demanda	-8331
▁derivan	-8332
▁obtener	-8333
▁investig	-8334
▁amaneixen	-8335
▁contrario	-8336
▁relichions	-8337
▁politicament	-8338
▁departamentos	-8339
bó	-8340
hof	-8341
acum	-8342
raza	-8343
utor	-8344
úcar	-8345
▁law	-8346
▁way	-8347
puent	-8348
▁emil	-8349
▁glor	-8350
▁lurs	-8351
▁tral	-8352
izando	-8353
portar	-8354
raltar	-8355
▁delim	-8356
▁recla	-8357
▁sinte	-8358
▁vivir	-8359
▁zarra	-8360
palacio	-8361
▁chuana	-8362
▁luengo	-8363
▁quadro	-8364
▁turque	-8365
occident	-8366
▁aproxim	-8367
▁bastida	-8368
▁blancos	-8369
▁estremo	-8370
▁neoclas	-8371
▁recibir	-8372
▁rosario	-8373
▁tailand	-8374
▁ubierto	-8375
▁balaguer	-8376
▁permiten	-8377
▁pinturas	-8378
▁bonaparte	-8379
▁descubrim	-8380
▁escritors	-8381
▁literario	-8382
▁consellero	-8383
▁testamento	-8384
dom	-8385
jer	-8386
seu	-8387
som	-8388
▁0)	-8389
agar	-8390
aros	-8391
atus	-8392
▁pse	-8393
▁rag	-8394
atlas	-8395
toria	-8396
urato	-8397
▁amar	-8398
▁café	-8399
▁cull	-8400
▁intr	-8401
▁sime	-8402
ailles	-8403
bavera	-8404
▁dició	-8405
▁manus	-8406
▁mener	-8407
▁padre	-8408
▁resol	-8409
▁torne	-8410
estable	-8411
▁gasòst	-8412
▁litera	-8413
▁polaca	-8414
▁récord	-8415
edificio	-8416
▁charrau	-8417
▁comanda	-8418
▁liberal	-8419
▁mónegue	-8420
▁podrían	-8421
▁teatral	-8422
▁artistas	-8423
▁combusti	-8424
▁concedió	-8425
▁terrenos	-8426
obchectivo	-8427
▁carolinch	-8428
▁exemplars	-8429
▁expresión	-8430
▁salzburgo	-8431
▁sobiranía	-8432
▁turquicos	-8433
▁definición	-8434
▁estendilla	-8435
▁participios	-8436
luc	-8437
vie	-8438
''»)	-8439
rant	-8440
▁tem	-8441
arcos	-8442
baver	-8443
iones	-8444
iscos	-8445
uesia	-8446
▁agru	-8447
▁fric	-8448
▁good	-8449
▁irán	-8450
▁lugo	-8451
▁mesa	-8452
▁reda	-8453
▁suel	-8454
▁cedió	-8455
▁erich	-8456
▁faixa	-8457
▁hesse	-8458
▁ocupó	-8459
▁pieza	-8460
▁susía	-8461
▁votos	-8462
luengas	-8463
▁corred	-8464
▁viache	-8465
parralde	-8466
▁ganador	-8467
▁muertos	-8468
▁ortodox	-8469
▁retablo	-8470
▁siberia	-8471
ccidental	-8472
temporada	-8473
▁composit	-8474
▁hibierno	-8475
▁probable	-8476
▁succedió	-8477
adchectivo	-8478
▁finalment	-8479
▁procesión	-8480
▁(0000–0000	-8481
investigación	-8482
dé	-8483
pt	-8484
eni	-8485
fla	-8486
hem	-8487
igi	-8488
joz	-8489
nus	-8490
rub	-8491
tia	-8492
miss	-8493
▁map	-8494
▁mia	-8495
▁mue	-8496
▁poz	-8497
grand	-8498
istan	-8499
tillo	-8500
▁''00	-8501
▁llan	-8502
atenas	-8503
fibios	-8504
gramas	-8505
iertas	-8506
netico	-8507
▁esque	-8508
▁poema	-8509
▁resto	-8510
ificata	-8511
izabeth	-8512
▁alazet	-8513
▁bloque	-8514
▁cadena	-8515
▁chugar	-8516
▁corral	-8517
▁leopol	-8518
▁motivo	-8519
▁respon	-8520
duccions	-8521
▁consigu	-8522
▁destacó	-8523
▁engarch	-8524
▁nativos	-8525
▁novelas	-8526
▁organos	-8527
▁angleses	-8528
▁cardenal	-8529
▁comunica	-8530
▁cristian	-8531
▁moriello	-8532
▁castiellos	-8533
▁deseparación	-8534
▁estatounitenses	-8535
oï	-8536
ов	-8537
abad	-8538
acha	-8539
aras	-8540
ixón	-8541
trop	-8542
▁cay	-8543
▁ner	-8544
abana	-8545
landk	-8546
▁(00)	-8547
▁lich	-8548
▁sobr	-8549
▁vivo	-8550
amento	-8551
▁chugó	-8552
▁empar	-8553
▁forad	-8554
▁labra	-8555
▁mando	-8556
▁pagar	-8557
▁ronda	-8558
▁vivió	-8559
▁white	-8560
ucarest	-8561
▁tornan	-8562
▁vallés	-8563
apellito	-8564
argelèrs	-8565
▁(0000):	-8566
▁bolonia	-8567
▁cronica	-8568
▁fruitos	-8569
▁motivos	-8570
▁plegata	-8571
filosofos	-8572
president	-8573
▁arredols	-8574
▁canarias	-8575
▁masculín	-8576
▁perifras	-8577
▁solament	-8578
▁dialectal	-8579
▁consonants	-8580
▁nacionalidat	-8581
ła	-8582
fic	-8583
qué	-8584
vor	-8585
vus	-8586
buen	-8587
fita	-8588
idan	-8589
jazz	-8590
reba	-8591
tada	-8592
ulia	-8593
usos	-8594
árez	-8595
▁mui	-8596
▁spr	-8597
allar	-8598
aster	-8599
covia	-8600
quita	-8601
▁angu	-8602
▁anna	-8603
▁clim	-8604
▁psic	-8605
alavez	-8606
itoria	-8607
period	-8608
▁curto	-8609
▁epent	-8610
▁equiv	-8611
▁great	-8612
▁marie	-8613
▁north	-8614
▁notar	-8615
▁oclus	-8616
▁xorda	-8617
partido	-8618
▁ocupan	-8619
▁preced	-8620
undación	-8621
▁metodos	-8622
▁picasso	-8623
▁teorías	-8624
emperador	-8625
▁aconsegu	-8626
▁chirmana	-8627
▁ciclismo	-8628
▁familiar	-8629
▁forcallo	-8630
▁minorías	-8631
▁portalada	-8632
▁puértolas	-8633
▁clasificar	-8634
organización	-8635
▁posiblement	-8636
▁relichiosas	-8637
▁microtoponimo	-8638
ai	-8639
ain	-8640
arm	-8641
lab	-8642
ray	-8643
rán	-8644
ste	-8645
▁ak	-8646
▁wo	-8647
curs	-8648
erau	-8649
more	-8650
onne	-8651
side	-8652
udos	-8653
▁már	-8654
▁oci	-8655
▁ric	-8656
eixer	-8657
marie	-8658
reich	-8659
video	-8660
▁nova	-8661
▁poet	-8662
▁wind	-8663
equipe	-8664
▁diosa	-8665
▁hereu	-8666
▁marne	-8667
▁muñoz	-8668
▁viach	-8669
equipes	-8670
estella	-8671
▁atenas	-8672
▁bailar	-8673
▁capeza	-8674
▁dublín	-8675
▁lorena	-8676
▁moreno	-8677
▁reduci	-8678
landeses	-8679
▁calanda	-8680
▁dificul	-8681
▁estruct	-8682
▁habitan	-8683
▁indican	-8684
▁modelos	-8685
▁prerrom	-8686
▁visible	-8687
menistros	-8688
▁dominios	-8689
▁apareixió	-8690
▁permanent	-8691
▁protector	-8692
▁basketball	-8693
▁individuos	-8694
▁interpretar	-8695
▁trescruzato	-8696
▁conchuncions	-8697
uña	-8698
cock	-8699
iden	-8700
élix	-8701
ínas	-8702
▁::*	-8703
▁abu	-8704
▁bed	-8705
board	-8706
india	-8707
sobre	-8708
tilla	-8709
unció	-8710
▁0:00	-8711
▁caes	-8712
▁gasc	-8713
▁laro	-8714
▁llor	-8715
▁nomb	-8716
▁vice	-8717
▁vier	-8718
▁vlad	-8719
dramat	-8720
ánchel	-8721
▁dotze	-8722
▁event	-8723
▁fundó	-8724
▁marin	-8725
▁prevo	-8726
▁roque	-8727
▁simpl	-8728
andalus	-8729
rechión	-8730
▁conden	-8731
▁durada	-8732
▁enampl	-8733
▁fracas	-8734
▁hockey	-8735
▁mesmas	-8736
▁ocupar	-8737
omenache	-8738
▁chimnas	-8739
▁russell	-8740
autoridat	-8741
▁pavillón	-8742
▁tornoron	-8743
▁derivatos	-8744
▁invasions	-8745
▁respuesta	-8746
▁segundaria	-8747
▁investigación	-8748
èl	-8749
eum	-8750
hir	-8751
iol	-8752
oks	-8753
sil	-8754
▁ví	-8755
''",	-8756
andr	-8757
bern	-8758
gens	-8759
mosa	-8760
tatz	-8761
utro	-8762
▁abo	-8763
▁alt	-8764
▁fle	-8765
▁sad	-8766
▁sum	-8767
▁tob	-8768
inals	-8769
qusta	-8770
▁aran	-8771
▁desf	-8772
▁evan	-8773
▁iber	-8774
guesía	-8775
sieglo	-8776
▁caita	-8777
▁nagor	-8778
▁plant	-8779
▁sigue	-8780
▁story	-8781
▁unius	-8782
echipto	-8783
utación	-8784
▁aument	-8785
▁doncas	-8786
▁fondón	-8787
▁ganato	-8788
▁intrés	-8789
▁ludwig	-8790
▁reyals	-8791
▁chodiga	-8792
▁decreto	-8793
▁muestra	-8794
districto	-8795
▁apellito	-8796
▁bucarest	-8797
▁cheometr	-8798
▁chinevra	-8799
▁equivale	-8800
▁national	-8801
▁remataus	-8802
▁secilias	-8803
isticament	-8804
▁campanyas	-8805
▁filología	-8806
▁temporata	-8807
dramaturgos	-8808
▁marabillas	-8809
▁procedents	-8810
▁publicacions	-8811
ef	-8812
,''	-8813
bab	-8814
cad	-8815
pit	-8816
▁uz	-8817
ason	-8818
entó	-8819
iria	-8820
mill	-8821
ning	-8822
uces	-8823
▁aud	-8824
▁bun	-8825
aceae	-8826
altra	-8827
andra	-8828
arrib	-8829
centa	-8830
ellar	-8831
idato	-8832
pital	-8833
▁mari	-8834
▁viva	-8835
▁édit	-8836
-0000:	-8837
ordesa	-8838
▁della	-8839
▁music	-8840
▁serra	-8841
baverán	-8842
▁almend	-8843
▁eslava	-8844
▁espaci	-8845
▁intens	-8846
▁prepar	-8847
▁propag	-8848
▁disting	-8849
▁emplega	-8850
▁foranos	-8851
▁poetisa	-8852
▁trobato	-8853
▁costeras	-8854
▁edicions	-8855
▁einstein	-8856
▁esdevien	-8857
▁ligüerre	-8858
▁vaticano	-8859
▁amariella	-8860
▁convertir	-8861
▁dramatico	-8862
▁pontifici	-8863
▁rematoron	-8864
▁calsineras	-8865
▁chermanica	-8866
▁luxemburgo	-8867
▁tradicions	-8868
▁christopher	-8869
▁participoron	-8870
▁protagonista	-8871
▁caracteristico	-8872
wi	-8873
asc	-8874
eme	-8875
furt	-8876
hand	-8877
llas	-8878
town	-8879
urol	-8880
▁hip	-8881
▁mah	-8882
amica	-8883
bella	-8884
ebras	-8885
icana	-8886
ificó	-8887
lando	-8888
maría	-8889
▁bull	-8890
▁dacs	-8891
▁gron	-8892
▁puig	-8893
▁yves	-8894
aplica	-8895
nessee	-8896
▁espon	-8897
▁parad	-8898
▁quart	-8899
▁reman	-8900
▁sueca	-8901
▁uello	-8902
▁young	-8903
ológico	-8904
▁esfens	-8905
▁monica	-8906
aspectos	-8907
▁capitán	-8908
▁disenya	-8909
▁francho	-8910
▁lorenzo	-8911
▁niervos	-8912
▁mudéchar	-8913
▁particla	-8914
▁prestich	-8915
▁proviene	-8916
▁moleculas	-8917
▁provienen	-8918
antroponimo	-8919
▁encomienza	-8920
▁manchester	-8921
▁substancia	-8922
▁universidad	-8923
▁substantivos	-8924
vs	-8925
adu	-8926
ark	-8927
iii	-8928
pun	-8929
tri	-8930
uco	-8931
èla	-8932
ange	-8933
atre	-8934
desh	-8935
josé	-8936
mund	-8937
tral	-8938
▁het	-8939
▁kim	-8940
ardos	-8941
erald	-8942
gatos	-8943
▁000)	-8944
▁ever	-8945
▁iran	-8946
▁mass	-8947
▁trig	-8948
▁vald	-8949
▁verd	-8950
▁vita	-8951
cionar	-8952
nesota	-8953
serrat	-8954
▁afect	-8955
▁aguas	-8956
▁ernst	-8957
▁gradu	-8958
▁titol	-8959
ilidatz	-8960
▁0-0000	-8961
▁amanix	-8962
▁devant	-8963
▁global	-8964
▁romano	-8965
▁sublev	-8966
▁suposa	-8967
▁taylor	-8968
▁tracia	-8969
itacions	-8970
miembros	-8971
minación	-8972
▁formada	-8973
▁verbals	-8974
▁estandar	-8975
▁esviella	-8976
▁larousse	-8977
▁0000/00).	-8978
▁foneticas	-8979
▁gramatica	-8980
▁brasilenyo	-8981
▁esferencia	-8982
▁caracteriza	-8983
▁chermanicos	-8984
▁coincidindo	-8985
▁representant	-8986
▁intervocalica	-8987
/)	-8988
bin	-8989
ety	-8990
top	-8991
upe	-8992
anus	-8993
ibar	-8994
mara	-8995
ures	-8996
▁0).	-8997
▁00)	-8998
▁0–0	-8999
▁cuc	-9000
▁enr	-9001
▁hud	-9002
▁lav	-9003
▁nag	-9004
▁sla	-9005
esper	-9006
night	-9007
ueita	-9008
▁beau	-9009
▁cans	-9010
▁film	-9011
▁naus	-9012
▁nutr	-9013
piedra	-9014
uarios	-9015
uridat	-9016
▁adolf	-9017
▁cumpl	-9018
▁delta	-9019
▁lider	-9020
▁maris	-9021
▁rique	-9022
▁sepul	-9023
▁serán	-9024
▁south	-9025
▁cocina	-9026
▁didier	-9027
▁latino	-9028
▁denguna	-9029
▁eugenio	-9030
▁pasoron	-9031
▁alcheria	-9032
▁cabecera	-9033
▁cracovia	-9034
▁succesor	-9035
▁aquitania	-9036
▁cambridge	-9037
▁protecher	-9038
▁sustitución	-9039
▁diftongación	-9040
▁š	-9041
rog	-9042
teg	-9043
teo	-9044
wal	-9045
iría	-9046
john	-9047
odor	-9048
otal	-9049
▁acb	-9050
▁etz	-9051
▁xim	-9052
ciano	-9053
lador	-9054
orrom	-9055
pinus	-9056
verly	-9057
▁clau	-9058
▁coma	-9059
▁trun	-9060
▁vict	-9061
chenia	-9062
entibo	-9063
ultors	-9064
ventut	-9065
▁000-0	-9066
▁atura	-9067
▁cerro	-9068
▁citar	-9069
▁creta	-9070
▁nadal	-9071
▁paleo	-9072
▁suici	-9073
antonio	-9074
archivo	-9075
esporte	-9076
▁cantar	-9077
▁dedica	-9078
▁misión	-9079
▁provis	-9080
▁sentir	-9081
tivament	-9082
▁alcalde	-9083
▁chovens	-9084
▁conchug	-9085
▁consecu	-9086
▁continu	-9087
▁ocupato	-9088
▁reptils	-9089
▁francico	-9090
▁batallero	-9091
▁estocolmo	-9092
▁napolitán	-9093
▁portugues	-9094
▁00.000.000	-9095
▁chibraltar	-9096
▁imperfecto	-9097
▁montevideo	-9098
▁orichinals	-9099
▁patrimonials	-9100
▁organizacions	-9101
hau	-9102
omp	-9103
0''.	-9104
iten	-9105
mbul	-9106
rock	-9107
tria	-9108
uard	-9109
vias	-9110
▁jud	-9111
▁vet	-9112
fuent	-9113
icion	-9114
▁atur	-9115
▁casp	-9116
▁duró	-9117
▁prus	-9118
▁trip	-9119
cación	-9120
puesto	-9121
▁cinqu	-9122
▁fauna	-9123
▁flora	-9124
▁sirve	-9125
▁veyen	-9126
▁árbol	-9127
armenia	-9128
ualment	-9129
▁aquell	-9130
▁buerda	-9131
▁cáller	-9132
▁nagore	-9133
▁panamá	-9134
▁serían	-9135
▁deciban	-9136
▁directa	-9137
▁estepas	-9138
▁poblato	-9139
▁alemanas	-9140
▁mecanica	-9141
▁temporal	-9142
▁tornando	-9143
▁éditions	-9144
organismos	-9145
▁emigroron	-9146
▁numerosos	-9147
▁participó	-9148
▁saraqusta	-9149
▁calandario	-9150
▁encluyendo	-9151
▁prefectura	-9152
low	-9153
mid	-9154
nic	-9155
sau	-9156
ubo	-9157
uls	-9158
zza	-9159
▁sw	-9160
anna	-9161
cito	-9162
mars	-9163
size	-9164
ving	-9165
xvii	-9166
▁aba	-9167
▁alo	-9168
▁buc	-9169
▁fós	-9170
▁guy	-9171
▁set	-9172
canad	-9173
ilars	-9174
moron	-9175
tingu	-9176
▁born	-9177
▁cauz	-9178
▁cens	-9179
▁gene	-9180
▁hect	-9181
▁otto	-9182
▁topo	-9183
aderas	-9184
izanda	-9185
tracta	-9186
▁acces	-9187
▁alaze	-9188
▁anyal	-9189
▁crisi	-9190
▁desin	-9191
▁extin	-9192
▁gallo	-9193
▁levan	-9194
▁marsh	-9195
▁pompe	-9196
idación	-9197
▁bergua	-9198
▁france	-9199
▁guarda	-9200
▁urbana	-9201
▁badajoz	-9202
▁baltica	-9203
▁chelera	-9204
▁poquetz	-9205
▁quatern	-9206
▁amuestra	-9207
▁cerdanya	-9208
prefectura	-9209
▁atletismo	-9210
▁biolochía	-9211
▁propuesta	-9212
chabalambre	-9213
▁conciertos	-9214
▁0000000000,	-9215
▁continación	-9216
▁responsable	-9217
▁civilización	-9218
▁colonización	-9219
estatounitense	-9220
zh	-9221
att	-9222
eas	-9223
nan	-9224
pra	-9225
ror	-9226
órd	-9227
card	-9228
clús	-9229
elia	-9230
gall	-9231
▁hop	-9232
▁reb	-9233
▁uig	-9234
alber	-9235
ultra	-9236
▁aven	-9237
aticas	-9238
lahoma	-9239
▁circu	-9240
▁clubs	-9241
▁ester	-9242
▁regla	-9243
ficient	-9244
▁anarqu	-9245
▁calais	-9246
▁chique	-9247
▁soldán	-9248
chección	-9249
▁antipas	-9250
▁cabalto	-9251
▁raymond	-9252
▁traduci	-9253
▁celebrar	-9254
▁decisión	-9255
▁reformas	-9256
▁especials	-9257
▁identidat	-9258
▁lombardía	-9259
ideyolochía	-9260
▁albarrazín	-9261
▁eslovaquia	-9262
▁pirenencas	-9263
▁ucraineses	-9264
▁patrimonial	-9265
▁instrumentos	-9266
▁representato	-9267
abo	-9268
eau	-9269
eli	-9270
iko	-9271
mam	-9272
nio	-9273
rus	-9274
wic	-9275
anca	-9276
espe	-9277
pala	-9278
vada	-9279
▁sof	-9280
▁wit	-9281
onata	-9282
opera	-9283
▁almu	-9284
▁ansó	-9285
▁bach	-9286
▁limp	-9287
▁mede	-9288
▁zero	-9289
echios	-9290
istema	-9291
▁franz	-9292
▁montg	-9293
▁recip	-9294
▁restr	-9295
▁torla	-9296
chencia	-9297
enarios	-9298
▁adedic	-9299
▁codigo	-9300
▁desaug	-9301
▁luitar	-9302
▁semell	-9303
▁silaba	-9304
▁títols	-9305
▁definir	-9306
▁khanato	-9307
▁lenguas	-9308
▁stephen	-9309
ladelphia	-9310
▁belatras	-9311
▁dalmacia	-9312
▁derivaus	-9313
▁insectos	-9314
▁marguins	-9315
▁modernos	-9316
▁williams	-9317
▁numerosas	-9318
▁disolución	-9319
▁esportivas	-9320
▁montserrat	-9321
▁mortaleras	-9322
▁repoblación	-9323
▁churisdicción	-9324
▁conoiximiento	-9325
ià	-9326
nu	-9327
ße	-9328
jon	-9329
kas	-9330
pau	-9331
tea	-9332
tok	-9333
-'',	-9334
acta	-9335
anes	-9336
iche	-9337
igen	-9338
mona	-9339
pica	-9340
urso	-9341
▁cil	-9342
▁cim	-9343
▁dub	-9344
▁exo	-9345
▁ral	-9346
armas	-9347
icaba	-9348
impor	-9349
itans	-9350
museu	-9351
obras	-9352
pueyo	-9353
urnas	-9354
zatas	-9355
▁abol	-9356
▁dete	-9357
▁mike	-9358
▁puyó	-9359
▁ross	-9360
aticos	-9361
quiera	-9362
quismo	-9363
ratico	-9364
riolin	-9365
▁aquel	-9366
▁arnal	-9367
▁inmig	-9368
▁morir	-9369
▁velar	-9370
atinato	-9371
esfensa	-9372
isferio	-9373
▁bayona	-9374
▁emilia	-9375
▁infant	-9376
▁pallar	-9377
▁pilota	-9378
anatolia	-9379
▁bispato	-9380
▁budismo	-9381
▁eslavas	-9382
▁francha	-9383
▁mirando	-9384
atmosfera	-9385
▁expresar	-9386
▁garchola	-9387
▁mamifers	-9388
▁ocupando	-9389
▁qüestión	-9390
▁trobaban	-9391
▁ambiental	-9392
▁cantidatz	-9393
▁conquerir	-9394
▁necesidat	-9395
▁palestina	-9396
▁victorias	-9397
▁artificial	-9398
▁exposición	-9399
▁propiament	-9400
▁subespecie	-9401
▁sustituito	-9402
▁parcialment	-9403
▁reconoixita	-9404
▁colaboración	-9405
▁partecipación	-9406
bir	-9407
dus	-9408
org	-9409
tha	-9410
uti	-9411
utt	-9412
▁ze	-9413
pera	-9414
xido	-9415
▁hay	-9416
▁nan	-9417
inson	-9418
ratas	-9419
varez	-9420
ética	-9421
▁amer	-9422
▁down	-9423
▁gior	-9424
▁lana	-9425
▁last	-9426
▁scal	-9427
ancias	-9428
fuente	-9429
▁00,0%	-9430
▁aisla	-9431
▁boliv	-9432
▁carro	-9433
▁cielo	-9434
▁devez	-9435
▁frase	-9436
▁quint	-9437
tancias	-9438
▁basata	-9439
▁blasco	-9440
▁chipre	-9441
▁conven	-9442
▁exitos	-9443
▁fuente	-9444
▁miller	-9445
▁pineta	-9446
▁semant	-9447
▁espelun	-9448
▁records	-9449
▁romanas	-9450
▁controla	-9451
▁desenvol	-9452
▁facultat	-9453
▁tresladó	-9454
▁clarament	-9455
▁eslovenia	-9456
▁cantabrica	-9457
▁castellans	-9458
▁obchectivo	-9459
▁subfamilia	-9460
▁establioron	-9461
▁reconoixito	-9462
▁manifestación	-9463
lem	-9464
num	-9465
ulu	-9466
zon	-9467
-00.	-9468
conf	-9469
culo	-9470
iang	-9471
wald	-9472
ícil	-9473
▁dun	-9474
▁jun	-9475
▁wid	-9476
''-''	-9477
arcal	-9478
herán	-9479
illón	-9480
mayor	-9481
menta	-9482
▁aren	-9483
▁cerv	-9484
▁enci	-9485
▁exer	-9486
▁memb	-9487
▁zeus	-9488
alazet	-9489
▁apell	-9490
▁barco	-9491
▁maorí	-9492
▁moore	-9493
▁ondas	-9494
▁saxón	-9495
▁steve	-9496
▁supre	-9497
▁turol	-9498
acuerdo	-9499
navarra	-9500
▁0000''	-9501
▁antigu	-9502
▁consum	-9503
▁cuevas	-9504
▁faixas	-9505
▁gosaba	-9506
▁luesia	-9507
▁vallès	-9508
graficas	-9509
▁partida	-9510
▁teherán	-9511
imilación	-9512
▁flamenco	-9513
▁laterals	-9514
▁mayestre	-9515
▁pertenex	-9516
▁quatrena	-9517
▁situatos	-9518
▁transmit	-9519
entamiento	-9520
▁amsterdam	-9521
▁declarato	-9522
connecticut	-9523
▁republicas	-9524
▁equivalents	-9525
▁perteneixió	-9526
▁pontificios	-9527
▁profesionals	-9528
▁ultrapuertos	-9529
gt	-9530
anh	-9531
bán	-9532
edy	-9533
iet	-9534
kon	-9535
más	-9536
our	-9537
pán	-9538
tie	-9539
core	-9540
llar	-9541
▁mob	-9542
abria	-9543
cinas	-9544
rence	-9545
tindo	-9546
urián	-9547
éndez	-9548
▁donó	-9549
▁esqu	-9550
▁isid	-9551
▁pell	-9552
▁regu	-9553
icoron	-9554
madrit	-9555
quesas	-9556
▁alber	-9557
▁award	-9558
▁cerem	-9559
▁harry	-9560
▁numer	-9561
▁simon	-9562
chenero	-9563
▁baixar	-9564
▁discos	-9565
▁estado	-9566
▁gaulle	-9567
▁prebat	-9568
▁steven	-9569
escribir	-9570
institut	-9571
▁apóstol	-9572
▁beverly	-9573
▁bordeus	-9574
▁cerials	-9575
▁difícil	-9576
▁empecip	-9577
▁equipos	-9578
▁financi	-9579
▁gabriel	-9580
▁jiménez	-9581
▁johnson	-9582
▁linache	-9583
▁militar	-9584
▁pascual	-9585
▁policía	-9586
▁trasoro	-9587
catalunya	-9588
▁difusión	-9589
▁entidatz	-9590
▁pachinas	-9591
▁sarrablo	-9592
interpreta	-9593
▁domestica	-9594
▁santuario	-9595
▁vechetals	-9596
▁australián	-9597
▁comparanza	-9598
▁territorials	-9599
fas	-9600
ims	-9601
new	-9602
yst	-9603
▁tx	-9604
dent	-9605
essa	-9606
gang	-9607
ilas	-9608
urio	-9609
èras	-9610
▁ais	-9611
▁dvd	-9612
▁xab	-9613
arina	-9614
onima	-9615
▁acum	-9616
▁amen	-9617
▁fall	-9618
▁ixes	-9619
▁lima	-9620
▁lión	-9621
▁semi	-9622
▁soft	-9623
▁tant	-9624
tarios	-9625
▁00000	-9626
▁baile	-9627
▁barry	-9628
▁piano	-9629
▁uesos	-9630
▁valls	-9631
deutsch	-9632
▁autoct	-9633
▁banyos	-9634
▁barcos	-9635
▁carniv	-9636
▁chóven	-9637
▁marcas	-9638
▁plevia	-9639
▁serols	-9640
▁baixant	-9641
▁chaplin	-9642
▁efectos	-9643
▁executa	-9644
▁existió	-9645
emplegaba	-9646
▁designar	-9647
▁figueres	-9648
▁foradada	-9649
▁intelich	-9650
▁napolion	-9651
▁occitans	-9652
▁templers	-9653
estendilló	-9654
▁autoridat	-9655
▁castellot	-9656
▁conseguir	-9657
▁parlament	-9658
▁lingüistas	-9659
▁desapareixito	-9660
▁funcionamiento	-9661
astr	-9662
ivir	-9663
ueta	-9664
vins	-9665
wich	-9666
▁bot	-9667
▁lle	-9668
court	-9669
hidro	-9670
ilton	-9671
izona	-9672
titut	-9673
zando	-9674
▁flex	-9675
▁tals	-9676
▁tomo	-9677
altras	-9678
entren	-9679
unciau	-9680
▁cient	-9681
▁comen	-9682
▁dieta	-9683
▁manca	-9684
▁zifra	-9685
dimpués	-9686
udonimo	-9687
▁adquir	-9688
▁anatom	-9689
▁bernal	-9690
▁curios	-9691
▁hipote	-9692
▁salita	-9693
▁states	-9694
▁transu	-9695
▁traves	-9696
▁chóvens	-9697
▁fluvial	-9698
▁meneras	-9699
▁moravia	-9700
▁ocupata	-9701
▁partita	-9702
▁poblata	-9703
▁stewart	-9704
inchenier	-9705
▁0000–00,	-9706
▁campiona	-9707
▁coincide	-9708
▁formoron	-9709
▁mongolia	-9710
▁austriaca	-9711
▁corrients	-9712
▁exteriors	-9713
▁increment	-9714
▁malautías	-9715
▁constituye	-9716
▁montanyosa	-9717
▁ribagorzán	-9718
▁versailles	-9719
-0000-000-0.	-9720
▁desembolica	-9721
▁reconoiximiento	-9722
gne	-9723
ips	-9724
iqu	-9725
sat	-9726
yén	-9727
ène	-9728
▁==	-9729
iena	-9730
▁châ	-9731
▁gom	-9732
▁hin	-9733
▁kaz	-9734
▁kon	-9735
▁leb	-9736
▁nad	-9737
▁non	-9738
0000.	-9739
cambe	-9740
conte	-9741
güesa	-9742
media	-9743
presa	-9744
torno	-9745
vinió	-9746
▁chup	-9747
▁cómo	-9748
▁gael	-9749
▁miel	-9750
▁rica	-9751
▁uefa	-9752
atoria	-9753
contes	-9754
ducato	-9755
icular	-9756
luenga	-9757
urugua	-9758
zación	-9759
▁alans	-9760
▁amigo	-9761
▁avent	-9762
▁maxim	-9763
▁senci	-9764
oristán	-9765
▁comple	-9766
▁darwin	-9767
▁debuix	-9768
▁persia	-9769
▁produz	-9770
▁prolon	-9771
▁tercio	-9772
abizanda	-9773
▁cabrera	-9774
▁chicorr	-9775
▁convier	-9776
▁factors	-9777
▁monarca	-9778
▁society	-9779
▁viellos	-9780
▁zoologo	-9781
▁castilla	-9782
▁castillo	-9783
▁describe	-9784
▁inventor	-9785
▁medecina	-9786
▁pianista	-9787
▁princesa	-9788
▁sinonimo	-9789
▁sobreviv	-9790
▁troboron	-9791
▁vilanova	-9792
▁amplament	-9793
▁chaponesa	-9794
▁ezquierda	-9795
▁internaci	-9796
▁mencionan	-9797
doccidental	-9798
▁distinguir	-9799
▁intervención	-9800
wy	-9801
pec	-9802
phe	-9803
rin	-9804
sax	-9805
uru	-9806
éné	-9807
▁ly	-9808
agas	-9809
alma	-9810
aran	-9811
cipe	-9812
kent	-9813
rons	-9814
taba	-9815
▁alp	-9816
▁clé	-9817
▁zag	-9818
ctico	-9819
lanca	-9820
munia	-9821
under	-9822
▁ante	-9823
▁card	-9824
▁gard	-9825
▁hamp	-9826
▁paco	-9827
▁sher	-9828
▁soto	-9829
▁ueit	-9830
proven	-9831
tampes	-9832
▁deleg	-9833
▁fores	-9834
▁fotos	-9835
▁josef	-9836
▁lingu	-9837
▁macro	-9838
▁mugan	-9839
▁norma	-9840
▁quarz	-9841
▁00-00.	-9842
▁biblia	-9843
▁metodo	-9844
▁negras	-9845
▁prensa	-9846
▁setios	-9847
▁trache	-9848
abilidat	-9849
esterios	-9850
▁cambeos	-9851
▁cantera	-9852
▁canyada	-9853
▁ciertas	-9854
▁cosacos	-9855
▁estrato	-9856
▁friesii	-9857
▁hispano	-9858
▁silesia	-9859
▁álvarez	-9860
▁(0000-00	-9861
▁candidat	-9862
▁carlista	-9863
▁churista	-9864
▁conoixió	-9865
▁etnonimo	-9866
▁sangüesa	-9867
▁scenario	-9868
▁simients	-9869
▁asambleya	-9870
▁contienen	-9871
▁organismo	-9872
▁almorabetz	-9873
▁comunistas	-9874
▁conflictos	-9875
▁turquemans	-9876
archipielago	-9877
▁cheografico	-9878
▁arquitectura	-9879
▁recuperación	-9880
áb	-9881
bib	-9882
cén	-9883
lac	-9884
▁0%	-9885
apel	-9886
boro	-9887
cero	-9888
cing	-9889
here	-9890
mens	-9891
qual	-9892
quan	-9893
uber	-9894
yata	-9895
▁bah	-9896
▁epo	-9897
▁fox	-9898
▁meg	-9899
pania	-9900
podos	-9901
ratre	-9902
yerbe	-9903
▁abre	-9904
▁teut	-9905
mación	-9906
▁bruce	-9907
▁casar	-9908
▁danza	-9909
▁davis	-9910
▁decad	-9911
▁gland	-9912
▁manga	-9913
▁nieto	-9914
▁pacto	-9915
▁patro	-9916
▁rival	-9917
▁roger	-9918
▁telec	-9919
▁texas	-9920
▁canals	-9921
▁chents	-9922
▁cierta	-9923
▁cursos	-9924
▁defens	-9925
▁descar	-9926
▁visión	-9927
▁cuerpos	-9928
▁fenomen	-9929
▁funchal	-9930
▁riqueza	-9931
organismo	-9932
▁advogato	-9933
▁americán	-9934
▁anatolia	-9935
▁asturias	-9936
▁convenci	-9937
▁nicheria	-9938
▁arabismos	-9939
▁asturiano	-9940
▁finalidat	-9941
▁hispanica	-9942
▁mencionar	-9943
▁background	-9944
▁caballería	-9945
▁iniciativa	-9946
▁prochectos	-9947
▁sovieticos	-9948
▁electronica	-9949
dir	-9950
kie	-9951
neu	-9952
▁zú	-9953
erno	-9954
issa	-9955
tano	-9956
tipo	-9957
trán	-9958
varo	-9959
will	-9960
▁cri	-9961
▁cud	-9962
▁rot	-9963
espan	-9964
itutz	-9965
louis	-9966
▁aleg	-9967
▁bara	-9968
▁burg	-9969
▁crom	-9970
▁enfr	-9971
▁mues	-9972
ambito	-9973
imenta	-9974
itania	-9975
pacing	-9976
portes	-9977
quiere	-9978
▁albán	-9979
▁cells	-9980
▁expul	-9981
▁falta	-9982
▁menas	-9983
▁venda	-9984
iciones	-9985
ilibrio	-9986
uruguai	-9987
▁brinco	-9988
▁cuchas	-9989
▁dients	-9990
▁ingres	-9991
▁ordens	-9992
▁robres	-9993
▁sasser	-9994
▁segorb	-9995
▁siguen	-9996
▁sobent	-9997
atividat	-9998
▁combate	-9999
▁guardia	-10000
▁humanas	-10001
▁monclús	-10002
▁teologo	-10003
▁trafico	-10004
▁0000-00;	-10005
▁000–000.	-10006
▁adhibito	-10007
▁antropon	-10008
▁consigue	-10009
▁dentrata	-10010
▁escritas	-10011
▁franklin	-10012
▁mariscal	-10013
▁publicos	-10014
▁treballa	-10015
▁vertical	-10016
▁contrimos	-10017
▁incluindo	-10018
▁cellspacing	-10019
▁meridionals	-10020
▁privilechios	-10021
atl	-10022
atu	-10023
hua	-10024
jou	-10025
lot	-10026
niv	-10027
ory	-10028
uás	-10029
vey	-10030
▁id	-10031
abol	-10032
asun	-10033
aton	-10034
band	-10035
chis	-10036
elly	-10037
iars	-10038
logo	-10039
oliv	-10040
ucky	-10041
▁avi	-10042
▁boc	-10043
▁cañ	-10044
▁phi	-10045
▁six	-10046
...''	-10047
emann	-10048
empla	-10049
estes	-10050
istén	-10051
ladas	-10052
manch	-10053
▁alum	-10054
▁aseg	-10055
▁cole	-10056
▁emis	-10057
▁enla	-10058
▁gram	-10059
▁ilir	-10060
▁nach	-10061
▁oral	-10062
▁scis	-10063
analís	-10064
canica	-10065
culars	-10066
estion	-10067
▁adequ	-10068
▁corso	-10069
▁félix	-10070
▁house	-10071
▁liban	-10072
▁melod	-10073
▁molín	-10074
▁video	-10075
▁water	-10076
▁camino	-10077
▁destín	-10078
▁feudal	-10079
▁gastón	-10080
▁integr	-10081
▁island	-10082
▁linars	-10083
▁medina	-10084
▁norman	-10085
▁puedan	-10086
▁seguir	-10087
▁trillo	-10088
▁castèth	-10089
▁decimas	-10090
▁ligallo	-10091
▁maximil	-10092
▁podendo	-10093
▁quintan	-10094
▁relatos	-10095
▁califato	-10096
▁guadalop	-10097
▁moriscos	-10098
▁philippe	-10099
▁ucrainés	-10100
▁component	-10101
▁deputatos	-10102
▁tierratre	-10103
▁costumbres	-10104
▁protestant	-10105
▁0-000-00000	-10106
▁celebración	-10107
▁diferenciar	-10108
▁documentata	-10109
▁protestants	-10110
▁relichiosos	-10111
ка	-10112
cob	-10113
fun	-10114
nit	-10115
vín	-10116
▁ال	-10117
acus	-10118
aron	-10119
fuer	-10120
hart	-10121
orum	-10122
osta	-10123
pool	-10124
quía	-10125
stor	-10126
ture	-10127
▁fit	-10128
▁lom	-10129
▁pig	-10130
cinco	-10131
erios	-10132
infin	-10133
iteus	-10134
izaus	-10135
▁cham	-10136
▁cist	-10137
▁efec	-10138
▁feto	-10139
▁gian	-10140
▁hart	-10141
▁nava	-10142
▁niza	-10143
▁ober	-10144
▁paix	-10145
▁pass	-10146
centro	-10147
enaica	-10148
inetas	-10149
prenci	-10150
termin	-10151
▁actos	-10152
▁doctr	-10153
▁hiper	-10154
▁kevin	-10155
▁placa	-10156
▁prebó	-10157
▁tacho	-10158
▁trama	-10159
▁adolfo	-10160
▁etnica	-10161
▁seguro	-10162
▁ánchel	-10163
michigan	-10164
missouri	-10165
valencia	-10166
▁disputa	-10167
▁etnicos	-10168
▁redotan	-10169
▁tardana	-10170
▁accident	-10171
▁amplaria	-10172
▁coronato	-10173
▁gascunya	-10174
▁habioron	-10175
▁remontar	-10176
▁composata	-10177
▁filipinas	-10178
▁pobladors	-10179
▁posesions	-10180
periodistas	-10181
▁administra	-10182
▁cristianas	-10183
▁desarrollo	-10184
▁expedición	-10185
▁predominant	-10186
sc	-10187
на	-10188
cou	-10189
cru	-10190
mic	-10191
pom	-10192
sey	-10193
vat	-10194
▁(/	-10195
ansó	-10196
atan	-10197
cabo	-10198
chem	-10199
mone	-10200
poso	-10201
tova	-10202
íriz	-10203
▁cus	-10204
▁dro	-10205
▁iba	-10206
▁kub	-10207
baden	-10208
burgh	-10209
ellan	-10210
fillo	-10211
olato	-10212
royal	-10213
seine	-10214
▁brad	-10215
▁dela	-10216
▁evid	-10217
▁gary	-10218
▁inno	-10219
▁mait	-10220
▁mart	-10221
▁rami	-10222
bratos	-10223
huesca	-10224
inache	-10225
▁#000;	-10226
▁*****	-10227
▁heart	-10228
▁montp	-10229
▁stone	-10230
▁verda	-10231
▁zucre	-10232
holanda	-10233
imburgo	-10234
talment	-10235
étampes	-10236
▁esport	-10237
▁intera	-10238
▁laguna	-10239
▁madera	-10240
▁poders	-10241
▁termín	-10242
▁adultos	-10243
▁anvista	-10244
▁creixer	-10245
▁designa	-10246
▁ilustra	-10247
▁lorient	-10248
▁nombrar	-10249
▁nuestro	-10250
▁sectors	-10251
▁senegal	-10252
▁vázquez	-10253
▁marshall	-10254
▁mezquita	-10255
influencia	-10256
▁arcebispe	-10257
▁calsinera	-10258
▁elizabeth	-10259
▁pirenenco	-10260
▁espanyolas	-10261
▁individual	-10262
▁zaragozana	-10263
▁catedratico	-10264
▁fabricación	-10265
▁villafranca	-10266
▁philadelphia	-10267
▁representando	-10268
hé	-10269
uy	-10270
gia	-10271
mac	-10272
rea	-10273
ury	-10274
▁gh	-10275
alda	-10276
imir	-10277
torr	-10278
udes	-10279
vich	-10280
zalo	-10281
▁apo	-10282
▁was	-10283
ceres	-10284
chena	-10285
worth	-10286
▁00%;	-10287
▁apos	-10288
▁aquí	-10289
▁cook	-10290
▁cuad	-10291
▁mann	-10292
basato	-10293
quetas	-10294
▁banco	-10295
▁claud	-10296
▁paolo	-10297
▁pasan	-10298
▁royal	-10299
▁separ	-10300
▁soter	-10301
londres	-10302
racions	-10303
tacions	-10304
▁bogart	-10305
▁congos	-10306
▁coruña	-10307
▁donald	-10308
▁habito	-10309
▁montal	-10310
▁saxons	-10311
tenstein	-10312
volución	-10313
▁arribar	-10314
▁atletas	-10315
▁consort	-10316
▁remíriz	-10317
fordshire	-10318
lombardía	-10319
tribución	-10320
▁afluents	-10321
▁colechio	-10322
▁desaugua	-10323
▁pareixiu	-10324
chermanico	-10325
▁americana	-10326
▁charraban	-10327
▁chenitivo	-10328
▁describir	-10329
▁francesco	-10330
▁igualment	-10331
▁labordeta	-10332
▁locucions	-10333
▁masculina	-10334
▁periodico	-10335
▁proteínas	-10336
▁restrinch	-10337
▁chentilicio	-10338
▁partidarios	-10339
▁presidencia	-10340
▁transmisión	-10341
▁esdevinioron	-10342
▁localización	-10343
▁administrativas	-10344
'"	-10345
.).	-10346
arb	-10347
cod	-10348
cti	-10349
dec	-10350
gam	-10351
gri	-10352
moz	-10353
ode	-10354
rac	-10355
rén	-10356
sex	-10357
tet	-10358
vit	-10359
▁:*	-10360
▁gö	-10361
▁nú	-10362
▁ud	-10363
agen	-10364
alum	-10365
mark	-10366
stra	-10367
uble	-10368
▁mán	-10369
▁pam	-10370
altro	-10371
blanc	-10372
islas	-10373
umont	-10374
▁brun	-10375
▁dimp	-10376
▁drag	-10377
▁fama	-10378
▁fich	-10379
▁iban	-10380
▁jeff	-10381
▁sacr	-10382
▁tiro	-10383
▁decor	-10384
▁narra	-10385
▁rapid	-10386
▁recep	-10387
▁river	-10388
▁sarah	-10389
▁sique	-10390
▁define	-10391
▁essent	-10392
▁etnias	-10393
▁frisia	-10394
▁millón	-10395
▁minima	-10396
▁nombró	-10397
▁quitar	-10398
▁rivera	-10399
▁sahara	-10400
▁trenta	-10401
▁uellas	-10402
▁xordas	-10403
▁zúrich	-10404
alcheria	-10405
toponimo	-10406
▁abandon	-10407
▁acompan	-10408
▁caixico	-10409
▁coppola	-10410
▁estudeo	-10411
▁hermann	-10412
▁ignacio	-10413
▁paleont	-10414
▁espacios	-10415
▁infantil	-10416
▁licencia	-10417
▁palancia	-10418
▁recients	-10419
▁satelite	-10420
▁vittorio	-10421
▁chimnasia	-10422
▁seguridat	-10423
prenunciato	-10424
▁distinción	-10425
▁organizato	-10426
▁interpresas	-10427
▁portugueses	-10428
▁sublevación	-10429
▁consideratos	-10430
▁instalacions	-10431
▁restauración	-10432
./	-10433
bun	-10434
rer	-10435
roy	-10436
uar	-10437
wil	-10438
çon	-10439
alex	-10440
ansa	-10441
bill	-10442
ctas	-10443
guía	-10444
ifas	-10445
pora	-10446
rell	-10447
rika	-10448
roya	-10449
urem	-10450
▁cis	-10451
▁ear	-10452
▁mio	-10453
▁rif	-10454
cinto	-10455
colla	-10456
himno	-10457
issip	-10458
liber	-10459
luyen	-10460
phrey	-10461
tiene	-10462
unico	-10463
▁adem	-10464
▁cayó	-10465
▁dido	-10466
▁dors	-10467
▁gato	-10468
▁hora	-10469
▁petr	-10470
▁ring	-10471
▁ryan	-10472
▁sean	-10473
ención	-10474
iguera	-10475
oneses	-10476
organo	-10477
▁cabos	-10478
▁champ	-10479
▁crist	-10480
▁donya	-10481
▁espar	-10482
▁fonda	-10483
▁masas	-10484
▁sudán	-10485
▁terci	-10486
▁túnel	-10487
▁woody	-10488
albania	-10489
▁bacter	-10490
▁buenas	-10491
▁bureba	-10492
▁castan	-10493
▁causas	-10494
▁centen	-10495
▁forato	-10496
▁matías	-10497
▁piteus	-10498
▁wilson	-10499
.000.000	-10500
▁ataques	-10501
▁cognato	-10502
▁famosos	-10503
▁heredia	-10504
▁lateral	-10505
▁mantién	-10506
▁tardano	-10507
▁catalano	-10508
▁charrata	-10509
▁corredor	-10510
▁mundials	-10511
▁reflecta	-10512
▁tropical	-10513
▁confundir	-10514
▁directora	-10515
▁electrico	-10516
▁irregular	-10517
▁programas	-10518
▁tailandia	-10519
▁actuacions	-10520
▁afganistán	-10521
▁considerau	-10522
▁decadencia	-10523
▁documentar	-10524
▁00-000-0000	-10525
▁descripción	-10526
▁republicana	-10527
▁traduccions	-10528
*''	-10529
get	-10530
nac	-10531
ost	-10532
pod	-10533
voz	-10534
▁lé	-10535
▁ss	-10536
''".	-10537
cruz	-10538
goro	-10539
jevo	-10540
mapa	-10541
teau	-10542
vaco	-10543
xeyo	-10544
▁ler	-10545
athan	-10546
ielle	-10547
nover	-10548
uegos	-10549
▁blin	-10550
▁buil	-10551
▁córd	-10552
▁diya	-10553
▁epis	-10554
▁here	-10555
▁miró	-10556
▁prep	-10557
▁shar	-10558
hammad	-10559
villar	-10560
▁bases	-10561
▁chesu	-10562
▁chord	-10563
▁fases	-10564
▁gases	-10565
▁himno	-10566
▁luigi	-10567
▁toron	-10568
▁width	-10569
▁ataque	-10570
▁august	-10571
▁campes	-10572
▁curtas	-10573
▁espard	-10574
▁fembra	-10575
▁fruita	-10576
▁fuesen	-10577
▁gordon	-10578
▁regano	-10579
▁valors	-10580
▁córdoba	-10581
▁mesuras	-10582
▁subdial	-10583
mentación	-10584
▁0000-00:	-10585
▁alcanyiz	-10586
▁cheleras	-10587
▁estremen	-10588
▁evanchel	-10589
▁mantiene	-10590
▁menester	-10591
▁vechetal	-10592
▁carlistas	-10593
▁conservar	-10594
▁hectarias	-10595
▁pirenenca	-10596
▁rechistra	-10597
▁filolochía	-10598
▁neoclasico	-10599
▁operacions	-10600
▁vilafranca	-10601
▁democratico	-10602
▁socialistas	-10603
2)	-10604
òl	-10605
mul	-10606
▁kg	-10607
▁má	-10608
▁mü	-10609
bera	-10610
cega	-10611
flag	-10612
ming	-10613
tipl	-10614
umas	-10615
uque	-10616
▁alg	-10617
▁bea	-10618
▁gel	-10619
▁rup	-10620
▁top	-10621
cheor	-10622
curso	-10623
ideza	-10624
itata	-10625
▁argu	-10626
▁call	-10627
▁cuti	-10628
▁levó	-10629
▁pozo	-10630
▁pris	-10631
▁vaix	-10632
alagón	-10633
anhalt	-10634
claude	-10635
despob	-10636
entino	-10637
ituals	-10638
quivir	-10639
ticias	-10640
▁altra	-10641
▁cayer	-10642
▁elise	-10643
▁liver	-10644
▁palla	-10645
▁palom	-10646
fisicos	-10647
inielle	-10648
▁acceso	-10649
▁alcham	-10650
▁amigos	-10651
▁atomos	-10652
▁basato	-10653
▁enclau	-10654
▁honras	-10655
▁meseta	-10656
▁neutro	-10657
▁solido	-10658
▁tetulo	-10659
▁canaria	-10660
▁chistén	-10661
▁herbert	-10662
▁partius	-10663
▁plegato	-10664
▁profund	-10665
▁qualque	-10666
▁ángeles	-10667
cripcions	-10668
▁comisión	-10669
▁hannover	-10670
▁metamorf	-10671
▁relativo	-10672
▁viliella	-10673
▁alexandre	-10674
▁bosniacos	-10675
▁castellar	-10676
▁irlandesa	-10677
literalment	-10678
▁austriacos	-10679
▁conservato	-10680
▁constantín	-10681
▁electromag	-10682
▁sovieticas	-10683
▁variacions	-10684
▁arquitecton	-10685
▁concretament	-10686
▁comunicacions	-10687
dt	-10688
:''	-10689
apr	-10690
hai	-10691
kan	-10692
leo	-10693
pic	-10694
pot	-10695
she	-10696
soz	-10697
uet	-10698
uán	-10699
▁só	-10700
abet	-10701
deno	-10702
inki	-10703
vern	-10704
áñez	-10705
▁cán	-10706
▁hir	-10707
▁out	-10708
▁pho	-10709
▁tou	-10710
aleix	-10711
ancha	-10712
maria	-10713
polis	-10714
uller	-10715
▁duro	-10716
▁sigü	-10717
▁sían	-10718
▁voiv	-10719
trofia	-10720
▁altro	-10721
▁bille	-10722
▁debiu	-10723
▁perda	-10724
▁polar	-10725
▁rebol	-10726
▁revel	-10727
▁todos	-10728
general	-10729
parlant	-10730
unidatz	-10731
▁alonso	-10732
▁berlin	-10733
▁dispon	-10734
▁esfuer	-10735
▁german	-10736
▁mercad	-10737
▁schles	-10738
▁vascos	-10739
allistas	-10740
▁armenio	-10741
▁cambios	-10742
▁chuntos	-10743
▁cuentos	-10744
▁paleozo	-10745
▁sinyals	-10746
▁vitoria	-10747
educación	-10748
▁autocton	-10749
▁benefici	-10750
▁ofensiva	-10751
▁torralba	-10752
▁turquica	-10753
▁condición	-10754
▁funcional	-10755
▁procedent	-10756
▁publicata	-10757
▁radiación	-10758
▁virchinia	-10759
▁adchectivo	-10760
▁economicas	-10761
▁normalment	-10762
▁sedimentos	-10763
alimentación	-10764
▁catolicismo	-10765
▁personaches	-10766
▁prehistoria	-10767
▁refuchiatos	-10768
▁relacionata	-10769
▁repobladors	-10770
▁interpresario	-10771
ej	-10772
yu	-10773
agh	-10774
dun	-10775
ija	-10776
tig	-10777
zia	-10778
▁oh	-10779
caix	-10780
cins	-10781
imov	-10782
mbla	-10783
mers	-10784
omun	-10785
tila	-10786
▁bog	-10787
▁für	-10788
▁gré	-10789
▁jam	-10790
entan	-10791
espar	-10792
troit	-10793
▁boti	-10794
▁calv	-10795
▁conn	-10796
▁cría	-10797
▁embl	-10798
▁girl	-10799
▁hels	-10800
▁kara	-10801
▁laus	-10802
▁line	-10803
▁odis	-10804
▁ripa	-10805
▁semb	-10806
▁alvar	-10807
▁endre	-10808
▁fidel	-10809
▁kenia	-10810
▁litur	-10811
▁midas	-10812
▁param	-10813
▁ralph	-10814
alcalde	-10815
▁asimil	-10816
▁civils	-10817
▁cumans	-10818
▁equipo	-10819
▁fusion	-10820
▁masclo	-10821
▁sergio	-10822
▁(0000);	-10823
▁amostra	-10824
▁brabant	-10825
▁kirguiz	-10826
▁marqués	-10827
▁recinto	-10828
embaixata	-10829
ocupación	-10830
tionnaire	-10831
▁fonetico	-10832
▁laurence	-10833
▁maquinas	-10834
▁mencions	-10835
▁moriella	-10836
▁murallas	-10837
chtenstein	-10838
estructura	-10839
formacions	-10840
▁agricolas	-10841
▁deportiva	-10842
▁helenismos	-10843
▁navegación	-10844
▁relacionar	-10845
▁combinación	-10846
▁presonaches	-10847
▁lingüisticas	-10848
▁napolionicas	-10849
▁reproducción	-10850
▁mayoritariament	-10851
áv	-10852
âr	-10853
èn	-10854
▁ú	-10855
day	-10856
eng	-10857
omy	-10858
sun	-10859
▁dy	-10860
▁io	-10861
▁sé	-10862
encl	-10863
enos	-10864
frag	-10865
iego	-10866
line	-10867
oder	-10868
▁...	-10869
▁abe	-10870
▁eth	-10871
escar	-10872
graph	-10873
orial	-10874
▁bren	-10875
▁chad	-10876
▁edit	-10877
▁fisi	-10878
▁kent	-10879
▁lago	-10880
▁yesa	-10881
archid	-10882
consin	-10883
iforme	-10884
ometro	-10885
onicos	-10886
tiella	-10887
▁coord	-10888
▁endem	-10889
▁foral	-10890
▁godos	-10891
▁luitó	-10892
▁pardo	-10893
▁repui	-10894
▁sport	-10895
▁toros	-10896
▁turín	-10897
partito	-10898
quieren	-10899
▁alaman	-10900
▁amplas	-10901
▁atorgó	-10902
▁barber	-10903
▁center	-10904
▁crabas	-10905
▁etnico	-10906
▁fueron	-10907
▁huston	-10908
▁ninvió	-10909
▁pedago	-10910
▁quedar	-10911
▁sexual	-10912
▁sidney	-10913
▁tamien	-10914
piración	-10915
▁definiu	-10916
▁folklor	-10917
▁intensa	-10918
▁letonia	-10919
▁licenci	-10920
▁calsinos	-10921
▁costatos	-10922
▁federico	-10923
▁natación	-10924
▁presentó	-10925
▁quintana	-10926
▁software	-10927
▁compuesto	-10928
▁electoral	-10929
▁existiban	-10930
▁frankfurt	-10931
▁potencial	-10932
medallistas	-10933
▁celebratos	-10934
▁diversidat	-10935
▁domesticos	-10936
▁parroquias	-10937
▁republicán	-10938
▁aplicacions	-10939
▁contemporan	-10940
▁estadística	-10941
▁cheneralidat	-10942
▁arqueolochico	-10943
▁especializato	-10944
??	-10945
mé	-10946
kus	-10947
lay	-10948
liv	-10949
lán	-10950
meu	-10951
uve	-10952
▁*0	-10953
back	-10954
burn	-10955
cita	-10956
clop	-10957
eanr	-10958
edro	-10959
ilis	-10960
sing	-10961
vier	-10962
▁neo	-10963
▁peg	-10964
▁thi	-10965
arque	-10966
entro	-10967
grave	-10968
haiga	-10969
penya	-10970
quero	-10971
tedra	-10972
▁mils	-10973
▁sexo	-10974
amocha	-10975
antigü	-10976
antrop	-10977
auguas	-10978
cipres	-10979
ctoria	-10980
ioners	-10981
▁calvo	-10982
▁deuts	-10983
▁indio	-10984
▁luisa	-10985
▁saudí	-10986
▁teniu	-10987
▁vapor	-10988
issippi	-10989
▁aporta	-10990
▁exilio	-10991
▁franca	-10992
▁pistas	-10993
estación	-10994
▁cuentra	-10995
▁explica	-10996
▁feguras	-10997
▁glacial	-10998
▁hongara	-10999
▁maquina	-11000
▁marchar	-11001
▁opinión	-11002
▁premite	-11003
▁tiengan	-11004
▁comarcal	-11005
▁infantes	-11006
▁multiplo	-11007
▁patrocin	-11008
▁pendendo	-11009
▁sociedad	-11010
-00000-000	-11011
riolinista	-11012
▁ediciones	-11013
▁inferiors	-11014
▁ortodoxos	-11015
▁presonals	-11016
▁continoron	-11017
▁esportista	-11018
▁esviellata	-11019
▁hemisferio	-11020
▁montpeller	-11021
▁personache	-11022
▁turolenses	-11023
▁(0000–0000)	-11024
▁orichinaria	-11025
▁guadalquivir	-11026
alg	-11027
def	-11028
eva	-11029
nom	-11030
sos	-11031
▁mó	-11032
coln	-11033
dero	-11034
etes	-11035
gala	-11036
itia	-11037
ixer	-11038
ugar	-11039
wicz	-11040
yons	-11041
yosa	-11042
▁gér	-11043
▁rid	-11044
▁saf	-11045
▁xxi	-11046
araug	-11047
gallo	-11048
globo	-11049
iesta	-11050
ontan	-11051
orama	-11052
table	-11053
yuela	-11054
▁dill	-11055
▁glas	-11056
▁hugh	-11057
▁live	-11058
▁play	-11059
▁ruiz	-11060
▁wall	-11061
aleanr	-11062
puerta	-11063
▁beach	-11064
▁bosch	-11065
▁burgo	-11066
▁conex	-11067
▁fanlo	-11068
▁lloyd	-11069
▁nazis	-11070
▁scena	-11071
agüerro	-11072
aspecto	-11073
carrera	-11074
detalle	-11075
primers	-11076
▁antihi	-11077
▁bangla	-11078
▁boxeyo	-11079
▁meteor	-11080
▁ronald	-11081
▁trampo	-11082
▁viking	-11083
estudios	-11084
leyonesa	-11085
▁calatra	-11086
▁detroit	-11087
▁figuras	-11088
▁fuentes	-11089
▁nomadas	-11090
▁plevias	-11091
▁puyando	-11092
▁reunión	-11093
▁sinyors	-11094
▁tensión	-11095
▁tunicia	-11096
barcelona	-11097
castellón	-11098
ientación	-11099
▁clamatos	-11100
▁explicar	-11101
▁externos	-11102
▁johannes	-11103
▁publicas	-11104
▁regulars	-11105
▁salvache	-11106
▁seccions	-11107
▁simbolos	-11108
▁subordin	-11109
▁victimas	-11110
▁comunidad	-11111
▁declarata	-11112
▁estacions	-11113
▁seguidors	-11114
entamientos	-11115
▁adaptación	-11116
▁emplegatos	-11117
▁sublevatos	-11118
▁pensamiento	-11119
▁relacionadas	-11120
(0	-11121
jul	-11122
kam	-11123
sul	-11124
ław	-11125
▁gw	-11126
▁um	-11127
''):	-11128
ciar	-11129
data	-11130
ders	-11131
edor	-11132
esia	-11133
iant	-11134
kota	-11135
lech	-11136
paso	-11137
ting	-11138
ullo	-11139
urri	-11140
▁''/	-11141
▁nam	-11142
adero	-11143
ciana	-11144
corre	-11145
ctica	-11146
estra	-11147
uerga	-11148
▁0–0,	-11149
▁anto	-11150
▁gold	-11151
▁rebl	-11152
▁solu	-11153
corred	-11154
guitar	-11155
istent	-11156
martin	-11157
ollera	-11158
vernia	-11159
▁0,000	-11160
▁acido	-11161
▁almog	-11162
▁alter	-11163
▁arbit	-11164
▁ciuta	-11165
▁crema	-11166
▁encha	-11167
▁greco	-11168
▁nitro	-11169
▁perén	-11170
▁pitts	-11171
adhibió	-11172
ctonica	-11173
romance	-11174
▁bandas	-11175
▁bispal	-11176
▁clamau	-11177
▁estric	-11178
▁merind	-11179
▁miquel	-11180
▁mudern	-11181
▁ordenó	-11182
▁presas	-11183
▁vicent	-11184
uremberg	-11185
▁beltrán	-11186
▁chileno	-11187
▁dividir	-11188
▁externa	-11189
▁ganando	-11190
▁toronto	-11191
▁viaches	-11192
cheorchia	-11193
iparralde	-11194
ribagorza	-11195
sociation	-11196
▁asturián	-11197
▁bernhard	-11198
▁catarina	-11199
▁celebran	-11200
▁definito	-11201
▁dichital	-11202
▁estrelas	-11203
▁historio	-11204
▁humphrey	-11205
▁mamifero	-11206
▁mantenió	-11207
▁medicina	-11208
▁variable	-11209
adaptación	-11210
▁amuestran	-11211
▁silvestre	-11212
estadística	-11213
▁cheneración	-11214
▁compositora	-11215
▁encomienzan	-11216
▁antroponimos	-11217
▁encomenzoron	-11218
▁terminacions	-11219
▁liechtenstein	-11220
agü	-11221
chu	-11222
gub	-11223
ied	-11224
iti	-11225
mut	-11226
udé	-11227
▁(<	-11228
▁ní	-11229
aber	-11230
dena	-11231
igal	-11232
iger	-11233
irar	-11234
isse	-11235
omob	-11236
tino	-11237
ucci	-11238
work	-11239
▁arg	-11240
▁fom	-11241
▁ill	-11242
▁liz	-11243
▁vad	-11244
acher	-11245
eixió	-11246
erner	-11247
leans	-11248
▁ador	-11249
▁agra	-11250
▁disc	-11251
▁fuen	-11252
▁guad	-11253
▁hoff	-11254
▁lois	-11255
▁pena	-11256
▁pins	-11257
▁polí	-11258
▁scha	-11259
▁seca	-11260
▁snow	-11261
▁sunn	-11262
ionato	-11263
▁#0000	-11264
▁agrup	-11265
▁bened	-11266
▁chama	-11267
▁chude	-11268
▁incon	-11269
▁malta	-11270
▁mandó	-11271
▁salir	-11272
▁simón	-11273
▁tetra	-11274
araguás	-11275
▁alband	-11276
▁bispes	-11277
▁chenov	-11278
▁conduc	-11279
▁duques	-11280
▁fayena	-11281
▁incurs	-11282
▁indire	-11283
▁langue	-11284
ematicos	-11285
ganadors	-11286
▁amanata	-11287
▁chardín	-11288
▁creixió	-11289
▁cátedra	-11290
▁hidrolo	-11291
▁iglesia	-11292
▁janeiro	-11293
▁penedès	-11294
▁penedés	-11295
▁procede	-11296
▁quereba	-11297
▁american	-11298
▁consolid	-11299
▁cruzatos	-11300
▁emplegau	-11301
▁entroron	-11302
▁epentesi	-11303
▁palacios	-11304
▁referend	-11305
▁sarajevo	-11306
▁amariello	-11307
▁compromís	-11308
▁guadalupe	-11309
▁indonesia	-11310
▁intención	-11311
▁transform	-11312
uncastiello	-11313
▁bertolomeu	-11314
▁dirichents	-11315
▁plataforma	-11316
▁tipicament	-11317
▁pertenencia	-11318
▁necesariament	-11319
-.	-11320
kra	-11321
kun	-11322
lei	-11323
sue	-11324
áis	-11325
▁##	-11326
▁ah	-11327
▁ia	-11328
▁iu	-11329
arba	-11330
atem	-11331
cedo	-11332
chán	-11333
dios	-11334
iler	-11335
izas	-11336
jose	-11337
nica	-11338
tecn	-11339
yent	-11340
▁euc	-11341
▁fec	-11342
▁geo	-11343
▁led	-11344
▁maz	-11345
▁sto	-11346
'0,00	-11347
house	-11348
álbum	-11349
ùgoro	-11350
▁ibón	-11351
▁issn	-11352
▁jaca	-11353
▁kuhn	-11354
▁mosa	-11355
▁sals	-11356
▁vero	-11357
anarqu	-11358
chunto	-11359
ificau	-11360
inario	-11361
manuel	-11362
primer	-11363
urreya	-11364
▁belún	-11365
▁caixa	-11366
▁corte	-11367
▁denya	-11368
▁exeya	-11369
▁faiga	-11370
▁frida	-11371
▁model	-11372
▁royas	-11373
▁selec	-11374
▁theft	-11375
▁tolos	-11376
▁venir	-11377
ablanca	-11378
piemont	-11379
▁cayita	-11380
▁cultos	-11381
▁listas	-11382
▁newton	-11383
▁oxford	-11384
▁prolar	-11385
▁recurr	-11386
▁suelos	-11387
▁villal	-11388
amplaria	-11389
▁cambras	-11390
▁celebre	-11391
▁corcega	-11392
▁dimpues	-11393
▁galindo	-11394
▁interme	-11395
▁lochica	-11396
▁minutos	-11397
▁stevens	-11398
▁tipicas	-11399
▁torraza	-11400
▁vincent	-11401
eticament	-11402
orichinal	-11403
tractatos	-11404
▁alcuerdo	-11405
▁creyador	-11406
▁descrito	-11407
▁fonética	-11408
▁homonima	-11409
▁imachens	-11410
▁morfosin	-11411
▁realizar	-11412
▁solución	-11413
▁veturián	-11414
▁atlantica	-11415
▁calamocha	-11416
▁carinyena	-11417
▁conceptos	-11418
▁conquista	-11419
▁contactos	-11420
▁domestico	-11421
▁gubiernos	-11422
▁hampshire	-11423
▁nuremberg	-11424
▁olimpiada	-11425
▁primicias	-11426
▁bangladesh	-11427
▁establidor	-11428
▁evoluciona	-11429
▁resultatos	-11430
▁terrestres	-11431
▁consideraba	-11432
▁construyita	-11433
▁tecnolochías	-11434
kl	-11435
wh	-11436
enf	-11437
gus	-11438
roi	-11439
sir	-11440
tró	-11441
yon	-11442
▁rh	-11443
▁és	-11444
----	-11445
angu	-11446
cape	-11447
caso	-11448
cole	-11449
etto	-11450
folk	-11451
ibol	-11452
ilyn	-11453
mesa	-11454
rián	-11455
tele	-11456
urag	-11457
▁nab	-11458
accip	-11459
acero	-11460
anton	-11461
chevi	-11462
democ	-11463
meter	-11464
yando	-11465
▁bula	-11466
▁nilo	-11467
▁peir	-11468
▁pior	-11469
▁reed	-11470
▁tens	-11471
ations	-11472
couver	-11473
proces	-11474
▁debut	-11475
▁maine	-11476
▁matas	-11477
▁pleno	-11478
▁polem	-11479
▁tamar	-11480
▁trigo	-11481
grafías	-11482
incluye	-11483
oxichén	-11484
▁bezeit	-11485
▁carles	-11486
▁enguer	-11487
▁fuegos	-11488
▁gérard	-11489
▁hetero	-11490
▁hunnos	-11491
▁little	-11492
▁manzan	-11493
▁prames	-11494
obchecto	-11495
▁cambear	-11496
▁clamosa	-11497
▁coordin	-11498
▁envista	-11499
▁esgueva	-11500
▁gosaban	-11501
▁nombran	-11502
▁nomencl	-11503
▁taxonom	-11504
apelativo	-11505
urrección	-11506
▁chugando	-11507
▁helsinki	-11508
▁luitoron	-11509
▁principe	-11510
▁sacerdot	-11511
▁salonica	-11512
▁sozmesos	-11513
▁usuarios	-11514
cheografía	-11515
▁actuación	-11516
▁adverbial	-11517
▁candidato	-11518
▁electrons	-11519
▁facilment	-11520
▁intresant	-11521
▁calendatas	-11522
▁economicos	-11523
▁evolucionó	-11524
▁construyito	-11525
▁devantadera	-11526
▁diccionario	-11527
▁relacionaus	-11528
▁substancias	-11529
sy	-11530
feu	-11531
inó	-11532
sas	-11533
vag	-11534
▁og	-11535
amar	-11536
font	-11537
last	-11538
ulus	-11539
urra	-11540
▁any	-11541
▁ash	-11542
▁bax	-11543
▁ein	-11544
▁isa	-11545
▁riu	-11546
▁stu	-11547
▁wat	-11548
cillo	-11549
crata	-11550
endor	-11551
ivine	-11552
▁avan	-11553
▁avar	-11554
▁chip	-11555
▁dalí	-11556
▁dans	-11557
▁eixe	-11558
▁hunt	-11559
▁rect	-11560
▁seda	-11561
▁serp	-11562
▁song	-11563
▁whit	-11564
.000).	-11565
alcalá	-11566
bourne	-11567
▁didos	-11568
▁domen	-11569
▁litor	-11570
▁martí	-11571
▁reims	-11572
▁segre	-11573
▁señor	-11574
▁troya	-11575
isabana	-11576
▁abarca	-11577
▁cierto	-11578
▁consul	-11579
▁formal	-11580
▁incend	-11581
▁mitier	-11582
▁portal	-11583
▁quinto	-11584
▁rincón	-11585
▁viviba	-11586
economía	-11587
▁conecta	-11588
▁constan	-11589
▁diciban	-11590
▁lingüís	-11591
▁musicos	-11592
▁oración	-11593
▁reempla	-11594
▁sellier	-11595
▁simient	-11596
americana	-11597
▁0:00:00.	-11598
▁acompany	-11599
▁brandemb	-11600
▁paralelo	-11601
▁recuperó	-11602
▁retirato	-11603
▁rosellón	-11604
▁traviesa	-11605
traducción	-11606
▁abundants	-11607
▁eslecions	-11608
integración	-11609
▁arquitecto	-11610
▁destacatas	-11611
▁molimentos	-11612
dictionnaire	-11613
▁essentielle	-11614
▁ferramienta	-11615
▁sustantivos	-11616
▁continentals	-11617
▁discografica	-11618
▁eclesiastico	-11619
▁universitario	-11620
▁universitarias	-11621
',	-11622
sé	-11623
tx	-11624
ст	-11625
act	-11626
ede	-11627
hus	-11628
ses	-11629
uez	-11630
vul	-11631
áin	-11632
òrt	-11633
▁sz	-11634
cabe	-11635
ctro	-11636
dura	-11637
eslo	-11638
frán	-11639
ieri	-11640
iser	-11641
riba	-11642
tron	-11643
unió	-11644
waii	-11645
▁baz	-11646
▁cun	-11647
▁cut	-11648
▁eva	-11649
▁hat	-11650
▁lip	-11651
▁ret	-11652
ianos	-11653
islam	-11654
junta	-11655
mundo	-11656
plaza	-11657
taxis	-11658
trogo	-11659
▁anch	-11660
▁biar	-11661
▁breu	-11662
▁eusk	-11663
▁gols	-11664
▁palo	-11665
▁sole	-11666
▁tanz	-11667
▁tito	-11668
atlant	-11669
bundes	-11670
gracia	-11671
uación	-11672
▁cabra	-11673
▁ganau	-11674
▁glaud	-11675
▁mallo	-11676
▁muros	-11677
▁nazar	-11678
▁posey	-11679
▁rolde	-11680
▁rugby	-11681
▁salen	-11682
▁vesti	-11683
borough	-11684
▁abstra	-11685
▁acidos	-11686
▁aranda	-11687
▁colons	-11688
▁marrón	-11689
▁merlet	-11690
▁nùgoro	-11691
▁zifras	-11692
escencia	-11693
plantago	-11694
queruela	-11695
▁aguilar	-11696
▁barrios	-11697
▁cautiva	-11698
▁estilos	-11699
▁fisicas	-11700
▁gaelico	-11701
▁loiseau	-11702
▁retacul	-11703
conoixito	-11704
corredors	-11705
▁cautivos	-11706
▁cristina	-11707
▁françáis	-11708
▁hamilton	-11709
▁internet	-11710
▁leonardo	-11711
▁ludivine	-11712
▁motocicl	-11713
▁pendient	-11714
▁remontan	-11715
emperadors	-11716
monesterio	-11717
▁autonomas	-11718
▁catalanas	-11719
▁excepción	-11720
▁sanscrito	-11721
▁intresants	-11722
▁mencionato	-11723
▁richardson	-11724
▁obchectivos	-11725
▁representaba	-11726
▁establimiento	-11727
▁massachusetts	-11728
▁investigacions	-11729
▁profesionalment	-11730
üb	-11731
ре	-11732
iri	-11733
kat	-11734
lec	-11735
ved	-11736
comp	-11737
good	-11738
lein	-11739
nord	-11740
pata	-11741
quad	-11742
être	-11743
▁gib	-11744
▁pío	-11745
▁wür	-11746
anque	-11747
arius	-11748
domin	-11749
inada	-11750
itada	-11751
ology	-11752
omina	-11753
orias	-11754
▁0,0%	-11755
▁aure	-11756
▁file	-11757
▁fren	-11758
▁grim	-11759
▁homo	-11760
▁oslo	-11761
▁seus	-11762
▁vera	-11763
ataque	-11764
iliars	-11765
inatos	-11766
lionés	-11767
ricana	-11768
▁bello	-11769
▁facto	-11770
▁habla	-11771
▁lucas	-11772
▁mitch	-11773
▁raban	-11774
▁razas	-11775
▁turca	-11776
▁volta	-11777
▁zebra	-11778
angular	-11779
premios	-11780
rantona	-11781
▁andrew	-11782
▁ernest	-11783
▁factor	-11784
▁morgan	-11785
▁palmas	-11786
▁trallo	-11787
▁villel	-11788
▁vueito	-11789
aragones	-11790
culluela	-11791
umentals	-11792
▁automat	-11793
▁bilingü	-11794
▁estatua	-11795
▁secreto	-11796
▁semanas	-11797
▁depender	-11798
▁leopoldo	-11799
▁pardinas	-11800
▁periglos	-11801
▁semontan	-11802
▁situatas	-11803
▁transfor	-11804
▁complexos	-11805
▁conquirió	-11806
▁criterios	-11807
▁magnetico	-11808
▁mantienen	-11809
▁seqüencia	-11810
▁tractatos	-11811
▁violencia	-11812
▁dominicana	-11813
▁neerlandesa	-11814
▁propietario	-11815
▁preposicions	-11816
▁subprefectura	-11817
▁constitucional	-11818
▁manifestacions	-11819
▁cheograficament	-11820
hm	-11821
oy	-11822
▁ö	-11823
fus	-11824
gut	-11825
pyr	-11826
riu	-11827
wit	-11828
òlt	-11829
amba	-11830
borg	-11831
cano	-11832
chus	-11833
cuen	-11834
ldán	-11835
pede	-11836
ries	-11837
▁enz	-11838
▁hav	-11839
▁ian	-11840
▁inn	-11841
▁kam	-11842
▁kid	-11843
▁plo	-11844
estat	-11845
inche	-11846
itzia	-11847
olina	-11848
zuela	-11849
▁arti	-11850
▁banu	-11851
▁benj	-11852
▁dino	-11853
▁dres	-11854
▁fila	-11855
▁loma	-11856
▁lumo	-11857
▁pars	-11858
▁posa	-11859
▁raúl	-11860
▁rose	-11861
▁time	-11862
altura	-11863
inatas	-11864
países	-11865
▁curva	-11866
▁isoto	-11867
▁italo	-11868
▁libia	-11869
▁piram	-11870
▁quant	-11871
▁rocos	-11872
▁salam	-11873
▁tucas	-11874
▁woman	-11875
ebraska	-11876
estudio	-11877
ontario	-11878
uckland	-11879
▁carbón	-11880
▁hispán	-11881
▁indico	-11882
▁instal	-11883
▁ixemen	-11884
▁roldán	-11885
▁tanyer	-11886
▁ciertos	-11887
▁circuns	-11888
▁defensa	-11889
▁estatus	-11890
▁gregory	-11891
▁tipicos	-11892
▁amaneixe	-11893
▁amostran	-11894
▁fundoron	-11895
▁geología	-11896
▁harrison	-11897
▁islamica	-11898
▁noticias	-11899
▁quimicos	-11900
▁vertebra	-11901
▁autonomía	-11902
▁conoixius	-11903
▁contenito	-11904
▁debuixant	-11905
▁finlandés	-11906
▁liverpool	-11907
▁normandos	-11908
▁reconoixe	-11909
▁recullita	-11910
▁eixemplars	-11911
▁estremenyo	-11912
▁participar	-11913
▁0-0000-0000	-11914
▁antihiatica	-11915
▁condicional	-11916
▁disposición	-11917
▁intelectual	-11918
▁proposición	-11919
▁unificación	-11920
▁construyoron	-11921
▁destribución	-11922
▁tractamiento	-11923
▁desembolicato	-11924
▁descubrimiento	-11925
ery	-11926
ett	-11927
fac	-11928
pur	-11929
ück	-11930
chón	-11931
itió	-11932
prun	-11933
▁box	-11934
▁ito	-11935
▁kos	-11936
▁sia	-11937
▁vig	-11938
alava	-11939
cento	-11940
emplo	-11941
falla	-11942
ifico	-11943
rilla	-11944
▁azer	-11945
▁bour	-11946
▁kong	-11947
▁lisa	-11948
▁tajo	-11949
▁trom	-11950
abaixo	-11951
achers	-11952
armata	-11953
castel	-11954
ristas	-11955
▁bomba	-11956
▁brest	-11957
▁brill	-11958
▁brivi	-11959
▁chenu	-11960
▁chiem	-11961
▁desas	-11962
▁escas	-11963
▁firme	-11964
▁galés	-11965
▁morea	-11966
▁odile	-11967
▁plato	-11968
▁recol	-11969
▁ritmo	-11970
▁royos	-11971
▁simul	-11972
▁tigre	-11973
▁avaros	-11974
▁biello	-11975
▁canyón	-11976
▁contar	-11977
▁deixan	-11978
▁desven	-11979
▁emilio	-11980
▁lancas	-11981
▁lanuza	-11982
▁monter	-11983
▁pasaba	-11984
▁reglas	-11985
▁rumans	-11986
▁subdiv	-11987
▁wilder	-11988
▁zurita	-11989
espanyol	-11990
qüencias	-11991
▁claudio	-11992
▁estonia	-11993
▁guaires	-11994
▁parache	-11995
▁parella	-11996
estocolmo	-11997
▁bolchevi	-11998
▁disierto	-11999
▁leopardo	-12000
▁progress	-12001
▁publicau	-12002
▁albandonó	-12003
▁briviesca	-12004
▁costumbre	-12005
▁impuestos	-12006
▁mozarabes	-12007
▁promoción	-12008
▁rematanza	-12009
▁wikipedia	-12010
▁clasifican	-12011
▁continando	-12012
▁incoativos	-12013
▁medievales	-12014
▁producindo	-12015
▁azerbaichán	-12016
▁benasquesas	-12017
▁destrucción	-12018
▁orichinario	-12019
▁provisional	-12020
▁recientment	-12021
▁ribagorzana	-12022
▁treballando	-12023
ра	-12024
abd	-12025
avy	-12026
bid	-12027
cav	-12028
fur	-12029
gab	-12030
gla	-12031
osh	-12032
pav	-12033
row	-12034
▁hé	-12035
chor	-12036
elló	-12037
frax	-12038
inda	-12039
juan	-12040
kman	-12041
nett	-12042
rión	-12043
ungs	-12044
vero	-12045
▁ace	-12046
▁aco	-12047
▁beg	-12048
▁dag	-12049
▁hap	-12050
▁llu	-12051
▁lou	-12052
▁nou	-12053
aller	-12054
estro	-12055
goire	-12056
icada	-12057
ielos	-12058
ierna	-12059
ionor	-12060
omery	-12061
popul	-12062
uliar	-12063
▁buda	-12064
▁crip	-12065
▁koso	-12066
▁over	-12067
▁ropa	-12068
▁vire	-12069
bación	-12070
corpor	-12071
mandat	-12072
árbols	-12073
▁align	-12074
▁canon	-12075
▁conde	-12076
▁coste	-12077
▁diman	-12078
▁esple	-12079
▁hijos	-12080
▁histó	-12081
▁jacob	-12082
▁pasos	-12083
isticio	-12084
mustela	-12085
▁afirma	-12086
▁creyen	-12087
▁enerch	-12088
▁herria	-12089
▁nikola	-12090
▁papels	-12091
▁preten	-12092
▁suprim	-12093
▁werner	-12094
ultramar	-12095
▁albanés	-12096
▁baixkir	-12097
▁calcula	-12098
▁celular	-12099
▁chigant	-12100
▁coronel	-12101
▁deporta	-12102
▁sonoras	-12103
portugués	-12104
▁almuades	-12105
▁asiatico	-12106
▁ballarín	-12107
▁bernardo	-12108
▁campions	-12109
▁chineses	-12110
▁chovenil	-12111
▁congosto	-12112
▁entender	-12113
▁formaban	-12114
▁grégoire	-12115
▁jonathan	-12116
▁muhammad	-12117
▁palencia	-12118
▁peculiar	-12119
▁perdendo	-12120
▁tanzania	-12121
▁trobando	-12122
estimación	-12123
▁alcuerdos	-12124
▁autoctona	-12125
▁concellos	-12126
▁deseparar	-12127
▁mortalera	-12128
▁toristico	-12129
▁continents	-12130
▁dialectals	-12131
▁especifica	-12132
▁pittsburgh	-12133
▁prestichio	-12134
▁asociacions	-12135
▁individuals	-12136
▁monesterios	-12137
▁significaus	-12138
▁corresponder	-12139
▁desembolicar	-12140
▁exclusivament	-12141
▁morfosintaxis	-12142
▁administración	-12143
▁precipitacions	-12144
▁castellanlionés	-12145
▁independentista	-12146
▁representacions	-12147
pé	-12148
ţa	-12149
ки	-12150
igü	-12151
més	-12152
pta	-12153
sig	-12154
ugu	-12155
uld	-12156
zel	-12157
zes	-12158
úbl	-12159
▁kn	-12160
aque	-12161
asta	-12162
bara	-12163
colo	-12164
itel	-12165
mera	-12166
rang	-12167
royo	-12168
ríos	-12169
ueba	-12170
vate	-12171
▁''*	-12172
▁bid	-12173
▁ble	-12174
▁fuy	-12175
▁fís	-12176
▁gim	-12177
▁gin	-12178
▁kol	-12179
▁nba	-12180
▁nim	-12181
▁ori	-12182
...).	-12183
aguas	-12184
ardía	-12185
artín	-12186
fried	-12187
latas	-12188
north	-12189
rucha	-12190
untes	-12191
yendo	-12192
▁alma	-12193
▁blue	-12194
▁bros	-12195
▁comn	-12196
▁ensa	-12197
▁faro	-12198
▁foix	-12199
▁hind	-12200
▁hong	-12201
▁lady	-12202
▁mare	-12203
▁mito	-12204
▁nazi	-12205
▁rodi	-12206
▁shan	-12207
▁trav	-12208
▁vori	-12209
asocia	-12210
ribera	-12211
solini	-12212
trando	-12213
turdus	-12214
urgués	-12215
▁alcor	-12216
▁amena	-12217
▁benav	-12218
▁embre	-12219
▁expos	-12220
▁humor	-12221
▁inver	-12222
▁julia	-12223
▁lenin	-12224
▁malas	-12225
▁marín	-12226
▁nieus	-12227
▁premi	-12228
▁recor	-12229
▁sankt	-12230
▁situa	-12231
▁solos	-12232
▁xordo	-12233
ecución	-12234
etiopia	-12235
francis	-12236
▁(00,00	-12237
▁anyals	-12238
▁autent	-12239
▁bridge	-12240
▁chamin	-12241
▁chugan	-12242
▁gallip	-12243
▁guatem	-12244
▁helena	-12245
▁introd	-12246
▁lechit	-12247
▁london	-12248
▁mounta	-12249
▁placas	-12250
▁podese	-12251
▁simetr	-12252
manchego	-12253
national	-12254
oklahoma	-12255
quinenza	-12256
▁albania	-12257
▁amanato	-12258
▁compens	-12259
▁country	-12260
▁descien	-12261
▁dioxido	-12262
▁leyonés	-12263
▁olivier	-12264
▁tozuelo	-12265
landkreis	-12266
▁cambeyos	-12267
▁cronicas	-12268
▁encorpor	-12269
▁organica	-12270
▁rematato	-12271
▁segundos	-12272
▁concierto	-12273
▁perdioron	-12274
▁relativos	-12275
▁sustituyó	-12276
institución	-12277
▁aeropuerto	-12278
▁conversión	-12279
▁dominación	-12280
▁esdevenito	-12281
▁proclamato	-12282
▁trescruzar	-12283
historiadors	-12284
▁alternativa	-12285
▁association	-12286
▁consiguioron	-12287
▁motociclismo	-12288
▁mantenimiento	-12289
▁especificament	-12290
dó	-12291
nd	-12292
tv	-12293
èv	-12294
ïa	-12295
eca	-12296
gow	-12297
hes	-12298
ibu	-12299
oul	-12300
pap	-12301
sim	-12302
ühr	-12303
ști	-12304
▁kr	-12305
▁sá	-12306
algo	-12307
daus	-12308
erro	-12309
esme	-12310
grán	-12311
iane	-12312
into	-12313
iris	-12314
ocar	-12315
tius	-12316
util	-12317
vico	-12318
▁old	-12319
aldea	-12320
altar	-12321
ditos	-12322
ipzig	-12323
latín	-12324
major	-12325
platz	-12326
risto	-12327
▁alav	-12328
▁chan	-12329
▁fitz	-12330
▁foro	-12331
▁home	-12332
▁lion	-12333
▁prox	-12334
▁psoe	-12335
abside	-12336
almend	-12337
caucas	-12338
emilia	-12339
icials	-12340
instal	-12341
unciar	-12342
▁batua	-12343
▁berna	-12344
▁camar	-12345
▁ceder	-12346
▁demés	-12347
▁falla	-12348
▁flota	-12349
▁fraix	-12350
▁fuyir	-12351
▁lazio	-12352
▁madre	-12353
▁murió	-12354
▁paper	-12355
▁santi	-12356
▁start	-12357
▁tarab	-12358
▁ystor	-12359
almunia	-12360
istóbal	-12361
▁abside	-12362
▁cardin	-12363
▁clamar	-12364
▁cortes	-12365
▁dismin	-12366
▁epocas	-12367
▁etapas	-12368
▁euskal	-12369
▁expris	-12370
▁museum	-12371
▁ozores	-12372
▁privar	-12373
▁seguiu	-12374
▁vicins	-12375
clopedia	-12376
graficos	-12377
luyencia	-12378
▁abraham	-12379
▁baronía	-12380
▁basilea	-12381
▁chapeto	-12382
▁cheners	-12383
▁desvién	-12384
▁gerhard	-12385
▁musclos	-12386
▁otomana	-12387
▁premier	-12388
▁recorre	-12389
▁amanatas	-12390
▁carolina	-12391
▁carrasca	-12392
▁derivata	-12393
▁espacial	-12394
▁lawrence	-12395
▁locución	-12396
▁superviv	-12397
▁concentra	-12398
▁escultura	-12399
▁mussolini	-12400
▁organizar	-12401
▁reconquer	-12402
▁turinchia	-12403
▁conchuntos	-12404
▁consagrato	-12405
▁especifico	-12406
▁formalment	-12407
▁relacionan	-12408
▁testimonio	-12409
mancomunidat	-12410
▁carolinchio	-12411
▁diferiencia	-12412
▁popularidat	-12413
▁superficies	-12414
▁tierrantona	-12415
▁cheneracions	-12416
"/	-12417
añ	-12418
bs	-12419
py	-12420
ău	-12421
alz	-12422
bod	-12423
ebo	-12424
ejo	-12425
kom	-12426
nab	-12427
sum	-12428
"'')	-12429
anne	-12430
erch	-12431
guin	-12432
icic	-12433
inan	-12434
ises	-12435
jpeg	-12436
ross	-12437
tris	-12438
umán	-12439
vend	-12440
▁0''	-12441
▁asc	-12442
▁hep	-12443
▁jar	-12444
▁liu	-12445
▁nel	-12446
▁spe	-12447
▁tío	-12448
▁vec	-12449
cilla	-12450
epoca	-12451
estau	-12452
petir	-12453
tismo	-12454
ávars	-12455
▁cler	-12456
▁cruc	-12457
▁fese	-12458
▁four	-12459
▁lake	-12460
▁lero	-12461
▁lind	-12462
▁loch	-12463
▁soul	-12464
▁zarr	-12465
iespor	-12466
ionero	-12467
siella	-12468
urasia	-12469
viedro	-12470
▁ariel	-12471
▁digra	-12472
▁feliu	-12473
▁garro	-12474
▁guara	-12475
▁jason	-12476
▁lemos	-12477
▁minch	-12478
▁terol	-12479
▁vinya	-12480
antilla	-12481
ciencia	-12482
estions	-12483
▁almada	-12484
▁casato	-12485
▁confor	-12486
▁mártir	-12487
▁obrero	-12488
idiocesi	-12489
▁alazeta	-12490
▁alcohol	-12491
▁aquells	-12492
▁gustavo	-12493
▁laboral	-12494
▁metabol	-12495
▁piemont	-12496
▁restaur	-12497
▁tecnico	-12498
accipiter	-12499
colección	-12500
▁dictador	-12501
▁galitzia	-12502
▁homonimo	-12503
▁leyendas	-12504
▁sendical	-12505
▁vivienda	-12506
▁wolfgang	-12507
▁ystorias	-12508
infinitivo	-12509
▁0000–0000	-12510
▁dirichito	-12511
▁predomina	-12512
▁pyrenaica	-12513
▁sociedatz	-12514
▁britanicas	-12515
▁escandinav	-12516
▁excepcions	-12517
▁musulmanas	-12518
▁#0000-0000:	-12519
▁antroponimo	-12520
▁cazaquistán	-12521
▁particulars	-12522
▁etimolochica	-12523
▁vicepresident	-12524
▁transformación	-12525
íd	-12526
▁»	-12527
aim	-12528
hip	-12529
iot	-12530
liz	-12531
rie	-12532
rys	-12533
vić	-12534
xia	-12535
ceta	-12536
ctan	-12537
endi	-12538
iesa	-12539
lock	-12540
oise	-12541
onau	-12542
onga	-12543
pedo	-12544
plas	-12545
prop	-12546
quil	-12547
▁jak	-12548
▁who	-12549
imbra	-12550
onada	-12551
tions	-12552
▁berk	-12553
▁dean	-12554
▁kenn	-12555
▁pela	-12556
▁rené	-12557
▁stud	-12558
▁surf	-12559
▁veyó	-12560
▁vole	-12561
biblio	-12562
columb	-12563
guedat	-12564
gueras	-12565
ientas	-12566
isgrán	-12567
lético	-12568
strato	-12569
trecht	-12570
unidat	-12571
▁alain	-12572
▁cella	-12573
▁ceret	-12574
▁charl	-12575
▁charo	-12576
▁cádiz	-12577
▁dance	-12578
▁escon	-12579
▁herba	-12580
▁hitch	-12581
▁infra	-12582
▁josep	-12583
▁kings	-12584
▁light	-12585
▁notas	-12586
▁padua	-12587
▁rabal	-12588
▁rotas	-12589
andalos	-12590
ornadas	-12591
▁aduyar	-12592
▁cavero	-12593
▁celula	-12594
▁desfer	-12595
▁fariza	-12596
▁fongos	-12597
▁gandhi	-12598
▁gerald	-12599
▁gustav	-12600
▁humano	-12601
▁kosovo	-12602
▁sobrar	-12603
▁uigurs	-12604
▁vecina	-12605
▁vienés	-12606
cheneral	-12607
universo	-12608
▁dividen	-12609
▁estudeó	-12610
▁marinas	-12611
▁precurs	-12612
▁torrent	-12613
▁vecinas	-12614
▁vueltas	-12615
habsburgo	-12616
▁balonmán	-12617
▁completo	-12618
▁deputato	-12619
▁invasors	-12620
▁occident	-12621
▁quereban	-12622
▁sepulcre	-12623
mediterran	-12624
▁chirmanas	-12625
▁enchaquia	-12626
▁evolutiva	-12627
▁percusión	-12628
▁poliespor	-12629
▁reaccions	-12630
importancia	-12631
▁compostela	-12632
▁montgomery	-12633
▁socialismo	-12634
▁australiana	-12635
▁continuidat	-12636
▁identificar	-12637
▁mosqueruela	-12638
▁progressive	-12639
▁rechimiento	-12640
▁trachectoria	-12641
▁intervocalicas	-12642
cá	-12643
oi	-12644
rh	-12645
ów	-12646
"/"	-12647
agn	-12648
aud	-12649
bao	-12650
mai	-12651
riv	-12652
tez	-12653
▁ok	-12654
cell	-12655
iani	-12656
igny	-12657
lois	-12658
opos	-12659
pelo	-12660
ples	-12661
sula	-12662
thus	-12663
undi	-12664
unid	-12665
york	-12666
▁agr	-12667
▁bic	-12668
▁fag	-12669
▁jus	-12670
▁rab	-12671
▁sea	-12672
achun	-12673
hanna	-12674
mania	-12675
radas	-12676
suiza	-12677
super	-12678
zione	-12679
▁abel	-12680
▁ampr	-12681
▁arma	-12682
▁bari	-12683
▁ecos	-12684
▁falc	-12685
▁hyde	-12686
▁isma	-12687
▁jenn	-12688
▁moda	-12689
▁mula	-12690
▁virt	-12691
ademuz	-12692
andría	-12693
archiv	-12694
cticos	-12695
econom	-12696
enciar	-12697
entola	-12698
queras	-12699
▁acull	-12700
▁afers	-12701
▁alfoz	-12702
▁axial	-12703
▁brazo	-12704
▁dubai	-12705
▁espir	-12706
▁mesón	-12707
▁miles	-12708
▁mismo	-12709
▁ortiz	-12710
▁pazin	-12711
▁saras	-12712
▁volga	-12713
▁walla	-12714
▁xúcar	-12715
anexión	-12716
arracín	-12717
genetta	-12718
icional	-12719
indiana	-12720
queline	-12721
tulario	-12722
william	-12723
▁(0000–	-12724
▁chicol	-12725
▁circum	-12726
▁claras	-12727
▁democr	-12728
▁descom	-12729
▁diciba	-12730
▁fertil	-12731
▁lacuna	-12732
▁longob	-12733
▁margin	-12734
▁perviv	-12735
▁plegau	-12736
▁previa	-12737
▁puyata	-12738
▁single	-12739
▁verdes	-12740
▁winter	-12741
▁celebró	-12742
▁chinesa	-12743
▁condens	-12744
▁coorden	-12745
▁espunya	-12746
▁florida	-12747
▁gracián	-12748
▁marilyn	-12749
▁ostrogo	-12750
▁poderba	-12751
▁redonda	-12752
▁resisti	-12753
▁rossell	-12754
▁tornada	-12755
ationally	-12756
▁cheneros	-12757
▁chudicio	-12758
▁circular	-12759
▁concreta	-12760
▁desvinió	-12761
▁eslovens	-12762
▁fluvials	-12763
▁formatos	-12764
▁intreses	-12765
▁mercurio	-12766
▁militars	-12767
▁neerland	-12768
▁pelicula	-12769
▁rotación	-12770
chacetania	-12771
pronunciau	-12772
▁asesinato	-12773
▁colectivo	-12774
▁convierte	-12775
▁distintas	-12776
▁finestras	-12777
▁hitchcock	-12778
▁paleologo	-12779
▁parellana	-12780
▁pasachers	-12781
▁patriarca	-12782
▁esdevienen	-12783
▁mequinenza	-12784
▁determinato	-12785
▁lingüística	-12786
▁vertebratos	-12787
▁composicions	-12788
▁estratechica	-12789
▁forachitatos	-12790
▁universitaria	-12791
▁internationally	-12792
'.	-12793
yp	-12794
ely	-12795
fir	-12796
iés	-12797
put	-12798
sto	-12799
▁mr	-12800
▁sy	-12801
▁él	-12802
agru	-12803
alch	-12804
apol	-12805
bero	-12806
espl	-12807
iola	-12808
lana	-12809
mete	-12810
mour	-12811
ober	-12812
obra	-12813
orto	-12814
quar	-12815
yana	-12816
önig	-12817
▁00°	-12818
▁ons	-12819
▁pab	-12820
▁ved	-12821
caban	-12822
cheno	-12823
cians	-12824
ember	-12825
entin	-12826
habil	-12827
handy	-12828
ieras	-12829
itaba	-12830
itica	-12831
trait	-12832
▁abkh	-12833
▁cede	-12834
▁fire	-12835
▁impr	-12836
▁maïa	-12837
▁ment	-12838
▁pina	-12839
▁road	-12840
▁titu	-12841
angelo	-12842
arenas	-12843
inidat	-12844
talles	-12845
évenaz	-12846
▁arbor	-12847
▁artur	-12848
▁bando	-12849
▁barón	-12850
▁esnav	-12851
▁faina	-12852
▁field	-12853
▁hotel	-12854
▁mateu	-12855
▁nomin	-12856
▁rubio	-12857
▁venus	-12858
▁ville	-12859
▁virus	-12860
anexion	-12861
atletas	-12862
florida	-12863
izadors	-12864
present	-12865
uttgart	-12866
▁abraca	-12867
▁aspira	-12868
▁califa	-12869
▁conces	-12870
▁contre	-12871
▁creyan	-12872
▁discre	-12873
▁dispar	-12874
▁elabor	-12875
▁fantas	-12876
▁miraba	-12877
▁mister	-12878
▁presos	-12879
▁sirven	-12880
▁albalat	-12881
▁basilio	-12882
▁bolivia	-12883
▁dentran	-12884
▁esquema	-12885
▁fenomén	-12886
▁maniera	-12887
▁monarqu	-12888
▁panonia	-12889
▁pinetas	-12890
▁sonitos	-12891
americans	-12892
minnesota	-12893
▁anderson	-12894
▁chupiter	-12895
▁dominant	-12896
▁escriben	-12897
▁ministro	-12898
▁planetas	-12899
▁porcenta	-12900
▁vikingos	-12901
▁alamanico	-12902
▁expulsión	-12903
▁fundadors	-12904
▁sobrecoll	-12905
▁thiévenaz	-12906
▁traductor	-12907
▁construyir	-12908
▁desinencia	-12909
▁liberación	-12910
▁necesidatz	-12911
▁prencipian	-12912
▁referendum	-12913
▁chabalambre	-12914
▁cheolochico	-12915
▁estructural	-12916
▁independent	-12917
▁industrials	-12918
▁transportar	-12919
▁metropolitán	-12920
▁sonorización	-12921
/.	-12922
yà	-12923
èi	-12924
cañ	-12925
mex	-12926
▁if	-12927
alab	-12928
alis	-12929
caba	-12930
deus	-12931
escu	-12932
etia	-12933
fall	-12934
fard	-12935
tavi	-12936
yeba	-12937
▁pep	-12938
acido	-12939
enyos	-12940
ixons	-12941
lingü	-12942
ricas	-12943
tería	-12944
ullar	-12945
urata	-12946
vedra	-12947
ávila	-12948
▁bals	-12949
▁bild	-12950
▁coro	-12951
▁díaz	-12952
▁fago	-12953
▁gamb	-12954
▁matt	-12955
▁obti	-12956
▁onda	-12957
▁piso	-12958
▁prat	-12959
▁roll	-12960
▁tubo	-12961
▁vinc	-12962
critos	-12963
observ	-12964
▁adams	-12965
▁aznar	-12966
▁cambo	-12967
▁depre	-12968
▁egual	-12969
▁enter	-12970
▁entró	-12971
▁feble	-12972
▁irene	-12973
▁landa	-12974
▁prede	-12975
▁rayos	-12976
▁redol	-12977
▁rober	-12978
▁trens	-12979
entatos	-12980
fuellas	-12981
▁altera	-12982
▁buixar	-12983
▁consta	-12984
▁cuerda	-12985
▁curtis	-12986
▁labort	-12987
▁masiva	-12988
▁monche	-12989
▁relato	-12990
▁warren	-12991
▁abanzau	-12992
▁adhibir	-12993
▁atomica	-12994
▁bergman	-12995
▁bruixas	-12996
▁caracas	-12997
▁clement	-12998
▁enrunas	-12999
▁escribe	-13000
▁espalda	-13001
▁leipzig	-13002
▁nazismo	-13003
▁orleans	-13004
▁peralta	-13005
▁seguida	-13006
▁torrero	-13007
▁ximénez	-13008
oxidación	-13009
yorkshire	-13010
▁absoluta	-13011
▁carpatos	-13012
▁chermano	-13013
▁decisiva	-13014
▁division	-13015
▁favoreix	-13016
▁margaret	-13017
▁menéndez	-13018
▁relativa	-13019
▁revistas	-13020
aragoneses	-13021
ciprestato	-13022
▁chenetica	-13023
▁deseparan	-13024
▁facilidat	-13025
▁mensaches	-13026
▁palaiseau	-13027
▁principió	-13028
▁recipient	-13029
▁rendición	-13030
▁tectonica	-13031
▁estudiants	-13032
▁galicismos	-13033
▁industrias	-13034
▁jacqueline	-13035
▁trescruzata	-13036
▁altoaragonés	-13037
▁trescruzando	-13038
▁nordoccidental	-13039
";	-13040
/;	-13041
dá	-13042
íu	-13043
big	-13044
ece	-13045
ird	-13046
mud	-13047
nil	-13048
out	-13049
uba	-13050
íso	-13051
▁vu	-13052
aves	-13053
cena	-13054
chil	-13055
eron	-13056
esla	-13057
fato	-13058
gada	-13059
ieza	-13060
jude	-13061
mero	-13062
musa	-13063
rado	-13064
raus	-13065
sara	-13066
tsch	-13067
ueno	-13068
umba	-13069
▁ami	-13070
▁boy	-13071
▁civ	-13072
▁muy	-13073
▁not	-13074
adeta	-13075
andés	-13076
cesor	-13077
endió	-13078
extin	-13079
inosa	-13080
naval	-13081
rusia	-13082
▁chub	-13083
▁dign	-13084
▁gent	-13085
▁high	-13086
▁lupo	-13087
▁pisa	-13088
▁quir	-13089
▁sols	-13090
▁tala	-13091
▁your	-13092
carlos	-13093
fortun	-13094
fradía	-13095
indows	-13096
infant	-13097
itivas	-13098
onicas	-13099
rioron	-13100
udévar	-13101
▁alcan	-13102
▁aleya	-13103
▁aluvi	-13104
▁alwin	-13105
▁capas	-13106
▁cecil	-13107
▁clamó	-13108
▁cubre	-13109
▁distr	-13110
▁dream	-13111
▁execu	-13112
▁glera	-13113
▁miami	-13114
▁perci	-13115
▁scors	-13116
alazeta	-13117
artista	-13118
atorial	-13119
canicas	-13120
ichenas	-13121
monecir	-13122
populus	-13123
quistas	-13124
tercera	-13125
▁arabia	-13126
▁frases	-13127
▁fósils	-13128
▁herman	-13129
▁isidro	-13130
▁merced	-13131
▁plazas	-13132
▁quarta	-13133
▁rudolf	-13134
▁sosten	-13135
▁tribun	-13136
▁troles	-13137
▁veneto	-13138
arcación	-13139
hispania	-13140
portugal	-13141
romanico	-13142
▁anguita	-13143
▁clamada	-13144
▁climent	-13145
▁correch	-13146
▁costant	-13147
▁creyada	-13148
▁entorno	-13149
▁fisicos	-13150
▁griegas	-13151
▁infanta	-13152
▁manresa	-13153
▁prensas	-13154
▁soberan	-13155
▁chestión	-13156
▁estratos	-13157
▁iglesias	-13158
▁montañas	-13159
▁quimicas	-13160
palatinato	-13161
▁decisions	-13162
▁eslovacos	-13163
▁mecanismo	-13164
▁murviedro	-13165
▁pazinacos	-13166
▁practicas	-13167
▁romanicas	-13168
▁totalment	-13169
▁viviendas	-13170
matematicos	-13171
▁emigración	-13172
▁encluyindo	-13173
▁gobernador	-13174
▁literarios	-13175
▁organizata	-13176
▁subcomarca	-13177
▁conservando	-13178
▁subespecies	-13179
▁aproveitando	-13180
▁aragonesismo	-13181
▁aragonesista	-13182
▁mancomunidat	-13183
▁relacionatas	-13184
▁sobrecollida	-13185
▁revolucionarias	-13186
gw	-13187
tl	-13188
ни	-13189
doc	-13190
gai	-13191
rem	-13192
roe	-13193
tto	-13194
wik	-13195
▁ou	-13196
...)	-13197
abre	-13198
acom	-13199
atom	-13200
crit	-13201
cura	-13202
dium	-13203
head	-13204
homo	-13205
hren	-13206
idea	-13207
iran	-13208
itad	-13209
love	-13210
nico	-13211
pios	-13212
ssel	-13213
toro	-13214
vana	-13215
wall	-13216
ïnat	-13217
▁gun	-13218
▁hil	-13219
▁imm	-13220
▁kas	-13221
▁lal	-13222
▁lue	-13223
▁pez	-13224
▁ria	-13225
▁sky	-13226
acion	-13227
arros	-13228
asanz	-13229
canal	-13230
caste	-13231
chich	-13232
dinam	-13233
encas	-13234
esera	-13235
ifera	-13236
norte	-13237
olica	-13238
reste	-13239
rodom	-13240
ència	-13241
▁aero	-13242
▁berd	-13243
▁caro	-13244
▁dere	-13245
▁fica	-13246
▁gren	-13247
▁logo	-13248
▁pino	-13249
▁pura	-13250
▁show	-13251
▁tesi	-13252
▁vins	-13253
▁wild	-13254
aceite	-13255
aldeya	-13256
ciello	-13257
cuello	-13258
donald	-13259
icaban	-13260
iticas	-13261
miguel	-13262
veland	-13263
viello	-13264
▁berch	-13265
▁farma	-13266
▁fesen	-13267
▁gusto	-13268
▁istes	-13269
▁jaime	-13270
▁leroy	-13271
▁meyos	-13272
▁releu	-13273
▁siete	-13274
▁sinyó	-13275
▁tocín	-13276
▁varía	-13277
enstein	-13278
ientres	-13279
imental	-13280
▁000''.	-13281
▁abadía	-13282
▁achent	-13283
▁bilbao	-13284
▁cuervo	-13285
▁deseyo	-13286
▁diminu	-13287
▁lombar	-13288
▁naixiu	-13289
▁polite	-13290
▁rodeno	-13291
▁tecton	-13292
ducioron	-13293
lituania	-13294
seguntes	-13295
tillería	-13296
▁agostín	-13297
▁comunit	-13298
▁english	-13299
▁felices	-13300
▁lexicos	-13301
▁litoral	-13302
▁llorenç	-13303
▁menutos	-13304
▁nombrau	-13305
▁radical	-13306
▁rodrigo	-13307
▁teixito	-13308
▁ventura	-13309
▁denomina	-13310
▁doctrina	-13311
▁internos	-13312
▁interrog	-13313
▁modernas	-13314
▁naixitos	-13315
▁niervoso	-13316
▁oríchens	-13317
▁partidos	-13318
▁refuchio	-13319
▁scorsese	-13320
▁semicult	-13321
▁uruguayo	-13322
▁arcánchel	-13323
▁besarabia	-13324
▁bizantina	-13325
▁cristóbal	-13326
▁descubrió	-13327
▁historias	-13328
▁maritimos	-13329
▁rematatos	-13330
▁stuttgart	-13331
▁yorkshire	-13332
▁0000-0000)	-13333
▁castèthnau	-13334
▁cheometría	-13335
▁chirmandat	-13336
▁conquiesto	-13337
▁zaragozano	-13338
▁alternativo	-13339
▁cosculluela	-13340
▁esportistas	-13341
▁naiximiento	-13342
▁engarcholato	-13343
▁hidrolochica	-13344
▁inscripcions	-13345
▁nacionalidatz	-13346
▁aproximadament	-13347
cd	-13348
dd	-13349
ро	-13350
adi	-13351
bús	-13352
fed	-13353
gae	-13354
ift	-13355
irk	-13356
kos	-13357
ree	-13358
tum	-13359
uge	-13360
beau	-13361
buch	-13362
erte	-13363
inac	-13364
iper	-13365
jara	-13366
mall	-13367
onte	-13368
teno	-13369
ugat	-13370
▁#00	-13371
▁agü	-13372
▁get	-13373
▁hob	-13374
▁nyf	-13375
▁tai	-13376
▁wol	-13377
adolf	-13378
angel	-13379
bruck	-13380
capra	-13381
catas	-13382
divid	-13383
ducen	-13384
genes	-13385
hotel	-13386
idges	-13387
imach	-13388
quial	-13389
rería	-13390
tilia	-13391
ystem	-13392
érica	-13393
▁acab	-13394
▁bayo	-13395
▁dren	-13396
▁echo	-13397
▁grid	-13398
▁hors	-13399
▁penn	-13400
▁tarn	-13401
brasil	-13402
father	-13403
izador	-13404
minata	-13405
olingü	-13406
parque	-13407
strong	-13408
ucifol	-13409
▁amill	-13410
▁bicic	-13411
▁broad	-13412
▁bueno	-13413
▁chino	-13414
▁colom	-13415
▁craba	-13416
▁demás	-13417
▁elena	-13418
▁impul	-13419
▁kelly	-13420
▁miran	-13421
▁monas	-13422
▁mover	-13423
▁nicol	-13424
▁right	-13425
▁suced	-13426
▁tarra	-13427
▁vilna	-13428
ambique	-13429
ducindo	-13430
▁absorb	-13431
▁alcher	-13432
▁balney	-13433
▁bundes	-13434
▁deshab	-13435
▁fridas	-13436
▁garden	-13437
▁lapesa	-13438
▁malena	-13439
▁marchó	-13440
▁mayord	-13441
▁naixen	-13442
▁ofreix	-13443
▁piazza	-13444
▁puente	-13445
▁quarto	-13446
▁rocher	-13447
american	-13448
entarios	-13449
▁cadenas	-13450
▁composa	-13451
▁contién	-13452
▁fonemas	-13453
▁gallega	-13454
▁giorgio	-13455
▁lincoln	-13456
▁materna	-13457
▁parques	-13458
▁pretend	-13459
▁aniellos	-13460
▁continan	-13461
▁cubierto	-13462
▁duración	-13463
▁faixista	-13464
▁forestal	-13465
▁habitato	-13466
▁hadriana	-13467
▁narancha	-13468
▁paralela	-13469
▁permitir	-13470
▁primaria	-13471
▁pronomin	-13472
▁voleibol	-13473
▁adedicato	-13474
▁caducifol	-13475
▁choventut	-13476
▁gridcolor	-13477
▁hernández	-13478
▁schleswig	-13479
▁totalidat	-13480
▁almogávars	-13481
▁dependendo	-13482
▁gramatical	-13483
▁predominan	-13484
▁pseudonimo	-13485
▁venezolano	-13486
▁orientación	-13487
▁ortografica	-13488
▁pennsilvania	-13489
▁universidatz	-13490
▁0-000-00000-0.	-13491
▁revolucionario	-13492
▁septentrionals	-13493
▁000-00-00000-00	-13494
'«	-13495
asp	-13496
kha	-13497
sag	-13498
yin	-13499
▁ip	-13500
'');	-13501
''».	-13502
affe	-13503
brun	-13504
dreg	-13505
empo	-13506
hlfs	-13507
idel	-13508
iens	-13509
live	-13510
mare	-13511
mico	-13512
phis	-13513
trus	-13514
vato	-13515
vere	-13516
òrra	-13517
▁chá	-13518
▁dni	-13519
▁gia	-13520
▁ome	-13521
▁piz	-13522
armes	-13523
buteo	-13524
delos	-13525
estió	-13526
reras	-13527
ubles	-13528
▁brag	-13529
▁cabe	-13530
▁carp	-13531
▁dion	-13532
▁edad	-13533
▁endo	-13534
▁fayó	-13535
▁hous	-13536
▁laín	-13537
▁minh	-13538
▁teod	-13539
▁tera	-13540
▁town	-13541
▁ueso	-13542
dislau	-13543
herine	-13544
lingua	-13545
martes	-13546
matico	-13547
oviedo	-13548
▁acced	-13549
▁chuda	-13550
▁echea	-13551
▁marqu	-13552
▁marte	-13553
▁nyfcc	-13554
▁picos	-13555
▁polig	-13556
▁preci	-13557
▁rodas	-13558
▁salió	-13559
▁saroï	-13560
▁union	-13561
ctorato	-13562
escuela	-13563
guardia	-13564
oficial	-13565
retrato	-13566
▁andrea	-13567
▁aromat	-13568
▁belico	-13569
▁brooks	-13570
▁circas	-13571
▁ciutat	-13572
▁comien	-13573
▁esposa	-13574
▁formig	-13575
▁grijal	-13576
▁inform	-13577
▁johnny	-13578
▁kansas	-13579
▁newman	-13580
▁perdiu	-13581
▁pronto	-13582
▁taller	-13583
▁versos	-13584
▁voivod	-13585
alimento	-13586
belchica	-13587
ificatos	-13588
▁agüerro	-13589
▁alfredo	-13590
▁artista	-13591
▁cientos	-13592
▁comneno	-13593
▁liquida	-13594
▁metendo	-13595
▁nicolas	-13596
▁ofreixe	-13597
▁respira	-13598
▁sinyato	-13599
▁torneyo	-13600
▁trazato	-13601
▁virella	-13602
▁calabria	-13603
▁columnas	-13604
▁desierto	-13605
▁desparte	-13606
▁labrador	-13607
▁ladislau	-13608
▁retirata	-13609
▁transpar	-13610
antiguedat	-13611
▁armstrong	-13612
▁asturiana	-13613
▁celebrato	-13614
▁cleveland	-13615
▁concordia	-13616
▁franconia	-13617
▁fricativo	-13618
▁gastronom	-13619
▁organicos	-13620
▁referindo	-13621
▁santander	-13622
▁verticals	-13623
▁celebroron	-13624
▁cheorchián	-13625
▁deseparata	-13626
▁distancias	-13627
▁indichenas	-13628
▁manuscrito	-13629
▁menisterio	-13630
▁saroïhandy	-13631
▁significar	-13632
▁00-00000-00	-13633
▁albandonato	-13634
▁espectadors	-13635
▁inscripción	-13636
▁interacción	-13637
▁hidrografica	-13638
▁nomenclatura	-13639
▁proclamación	-13640
▁romanización	-13641
acb	-13642
aco	-13643
air	-13644
eds	-13645
fle	-13646
led	-13647
urd	-13648
vac	-13649
zin	-13650
zor	-13651
▁té	-13652
alop	-13653
apur	-13654
aver	-13655
caus	-13656
chur	-13657
eler	-13658
emin	-13659
ende	-13660
fund	-13661
lito	-13662
mari	-13663
ondo	-13664
oras	-13665
osal	-13666
pian	-13667
tell	-13668
ueso	-13669
▁cid	-13670
▁cnt	-13671
▁ens	-13672
▁mau	-13673
▁oca	-13674
▁pud	-13675
▁vib	-13676
0000:	-13677
abakh	-13678
agata	-13679
atore	-13680
camín	-13681
imper	-13682
pedro	-13683
pista	-13684
ridor	-13685
tenia	-13686
zburg	-13687
zoron	-13688
▁buco	-13689
▁garr	-13690
▁hamb	-13691
▁pago	-13692
▁scho	-13693
▁sila	-13694
▁trol	-13695
▁unir	-13696
▁vela	-13697
aragua	-13698
habría	-13699
veolar	-13700
▁about	-13701
▁acaba	-13702
▁allan	-13703
▁bater	-13704
▁bolsa	-13705
▁fluxo	-13706
▁gosau	-13707
▁guarn	-13708
▁imped	-13709
▁jordi	-13710
▁lucía	-13711
▁oport	-13712
▁polin	-13713
▁ramon	-13714
▁sodio	-13715
▁sound	-13716
▁taust	-13717
▁wyler	-13718
atorios	-13719
chenesi	-13720
germain	-13721
imetros	-13722
kirchen	-13723
tiellas	-13724
▁antoni	-13725
▁asimov	-13726
▁baixan	-13727
▁catalo	-13728
▁church	-13729
▁claman	-13730
▁diches	-13731
▁dioron	-13732
▁empent	-13733
▁extend	-13734
▁fincas	-13735
▁física	-13736
▁inspir	-13737
▁kurdos	-13738
▁leslie	-13739
▁micros	-13740
▁morris	-13741
▁nelson	-13742
▁nivels	-13743
▁rohlfs	-13744
▁siente	-13745
▁sobrín	-13746
▁veïnat	-13747
▁xavier	-13748
guitarra	-13749
▁(00.000	-13750
▁antoine	-13751
▁biologo	-13752
▁bioquim	-13753
▁calient	-13754
▁campana	-13755
▁christi	-13756
▁churras	-13757
▁creixen	-13758
▁cáceres	-13759
▁digrafo	-13760
▁fondura	-13761
▁galaico	-13762
▁impacto	-13763
▁intento	-13764
▁lechión	-13765
▁moliner	-13766
▁polidas	-13767
eslovenia	-13768
▁africana	-13769
▁benjamin	-13770
▁cristofo	-13771
▁ganaders	-13772
▁grijalbo	-13773
▁parellán	-13774
▁perfecta	-13775
▁realment	-13776
▁rechistr	-13777
▁reservas	-13778
▁robinson	-13779
antigüidat	-13780
castellano	-13781
▁auxiliars	-13782
▁concedito	-13783
▁debantada	-13784
▁denominar	-13785
▁dirichida	-13786
▁espelunga	-13787
▁freguesía	-13788
▁guatemala	-13789
▁hidrochén	-13790
▁quantidat	-13791
▁sociologo	-13792
▁trestalla	-13793
▁variación	-13794
▁equilibrio	-13795
▁franquismo	-13796
▁indicativo	-13797
▁rechistros	-13798
▁reconoixió	-13799
▁(0000-0000,	-13800
▁agricultura	-13801
▁compilación	-13802
▁disciplinas	-13803
▁ideyolochía	-13804
▁superficial	-13805
▁ferramientas	-13806
ax	-13807
gón	-13808
nou	-13809
raf	-13810
vla	-13811
ïsa	-13812
▁ai	-13813
bata	-13814
bato	-13815
enia	-13816
erva	-13817
escr	-13818
filo	-13819
gard	-13820
izón	-13821
lich	-13822
mary	-13823
ofen	-13824
olos	-13825
piro	-13826
vici	-13827
wert	-13828
▁ful	-13829
▁kan	-13830
▁kem	-13831
▁moc	-13832
▁mér	-13833
▁obl	-13834
▁one	-13835
▁ort	-13836
▁quí	-13837
▁uga	-13838
abund	-13839
achim	-13840
alcar	-13841
alcol	-13842
astro	-13843
categ	-13844
franc	-13845
ieron	-13846
isclo	-13847
itico	-13848
izaba	-13849
langa	-13850
potam	-13851
▁allá	-13852
▁biqu	-13853
▁clor	-13854
▁elem	-13855
▁eric	-13856
▁gray	-13857
▁hand	-13858
▁lund	-13859
▁mier	-13860
▁méth	-13861
▁spen	-13862
guadal	-13863
muller	-13864
prunus	-13865
▁actas	-13866
▁aeria	-13867
▁aflor	-13868
▁bolea	-13869
▁brist	-13870
▁canci	-13871
▁debió	-13872
▁diana	-13873
▁ental	-13874
▁firma	-13875
▁grimm	-13876
▁grisa	-13877
▁gupta	-13878
▁monti	-13879
▁nicea	-13880
▁pomer	-13881
▁prima	-13882
▁susan	-13883
▁uella	-13884
▁vacas	-13885
▁wayne	-13886
archila	-13887
ariotas	-13888
armesto	-13889
chezira	-13890
naixito	-13891
palatal	-13892
▁(000),	-13893
▁anyata	-13894
▁cerclo	-13895
▁ingrid	-13896
▁odiseu	-13897
▁orbita	-13898
▁pobres	-13899
▁rambla	-13900
▁reform	-13901
▁ripoll	-13902
▁salvat	-13903
albandon	-13904
henrique	-13905
holstein	-13906
▁aplicar	-13907
▁coimbra	-13908
▁comenci	-13909
▁dividió	-13910
▁durante	-13911
▁enclaus	-13912
▁evident	-13913
▁existir	-13914
▁glasgow	-13915
▁kennedy	-13916
▁leonard	-13917
▁mongola	-13918
▁neuilly	-13919
▁nominal	-13920
▁tenient	-13921
▁trobada	-13922
▁viernes	-13923
francisco	-13924
tarentola	-13925
▁cinquena	-13926
▁deixoron	-13927
▁donación	-13928
▁eastwood	-13929
▁muestras	-13930
'0.000.000	-13931
▁americans	-13932
▁comparten	-13933
▁estudeyos	-13934
▁homenache	-13935
▁indicando	-13936
▁telecomun	-13937
▁chudicials	-13938
▁franquista	-13939
▁horizontal	-13940
▁invadioron	-13941
▁pareixitas	-13942
▁reconoixer	-13943
▁comerciants	-13944
▁cooperación	-13945
▁precisament	-13946
▁principatos	-13947
▁uncastiello	-13948
▁voluntarios	-13949
▁arqueolochicos	-13950
▁microtoponimia	-13951
▁correspondients	-13952
▁cristianización	-13953
ër	-13954
▁с	-13955
dev	-13956
dig	-13957
fig	-13958
ful	-13959
hou	-13960
▁ej	-13961
apos	-13962
blos	-13963
casp	-13964
club	-13965
crib	-13966
drom	-13967
fred	-13968
gosa	-13969
grey	-13970
idar	-13971
lach	-13972
peta	-13973
raca	-13974
ulan	-13975
verd	-13976
▁gau	-13977
▁gue	-13978
▁hac	-13979
▁imá	-13980
▁nax	-13981
▁nec	-13982
▁nes	-13983
▁oak	-13984
alcor	-13985
enios	-13986
losax	-13987
uenda	-13988
ueras	-13989
ührer	-13990
▁(0,0	-13991
▁clan	-13992
▁escu	-13993
▁lodi	-13994
▁lviv	-13995
▁oros	-13996
▁pign	-13997
▁sici	-13998
▁todo	-13999
▁uzbe	-14000
▁well	-14001
abance	-14002
chapón	-14003
estern	-14004
imetro	-14005
joseph	-14006
terito	-14007
▁(00):	-14008
▁apoco	-14009
▁asper	-14010
▁brook	-14011
▁bruno	-14012
▁castr	-14013
▁delle	-14014
▁deser	-14015
▁dolor	-14016
▁dulce	-14017
▁estad	-14018
▁estra	-14019
▁explo	-14020
▁hindu	-14021
▁ibons	-14022
▁intes	-14023
▁jaume	-14024
▁latas	-14025
▁leone	-14026
▁lunes	-14027
▁monet	-14028
▁recre	-14029
▁relev	-14030
▁sacar	-14031
▁termo	-14032
▁terry	-14033
▁vegas	-14034
▁zuera	-14035
albaida	-14036
canadre	-14037
departa	-14038
erament	-14039
iencias	-14040
ozeland	-14041
tiembre	-14042
tillana	-14043
velines	-14044
▁argent	-14045
▁caspia	-14046
▁ciresa	-14047
▁ducado	-14048
▁inunda	-14049
▁mercau	-14050
▁montre	-14051
▁pardus	-14052
▁pasiva	-14053
▁patria	-14054
▁pequín	-14055
▁platos	-14056
▁salida	-14057
▁sefard	-14058
▁stuart	-14059
▁verona	-14060
alfambra	-14061
aluminio	-14062
unidense	-14063
▁antigua	-14064
▁bigòrra	-14065
▁camerún	-14066
▁demostr	-14067
▁esclató	-14068
▁frontal	-14069
▁habrían	-14070
▁pastura	-14071
▁podesen	-14072
▁proposó	-14073
▁refirma	-14074
▁surreal	-14075
▁vinient	-14076
araugusta	-14077
peticions	-14078
tennessee	-14079
virchinia	-14080
▁antillas	-14081
▁belgrado	-14082
▁bodiello	-14083
▁correcta	-14084
▁gravedat	-14085
▁membrana	-14086
▁negativa	-14087
▁normando	-14088
aplicación	-14089
▁afluyents	-14090
▁calatrava	-14091
▁churidica	-14092
▁creyencia	-14093
▁familiars	-14094
▁foneticos	-14095
▁glandulas	-14096
▁guillermo	-14097
▁imposible	-14098
▁marcelino	-14099
▁neolitico	-14100
▁produeito	-14101
▁recibindo	-14102
▁sebastián	-14103
▁cheolochía	-14104
▁coloración	-14105
▁derivación	-14106
▁distribuye	-14107
▁documentan	-14108
▁incursions	-14109
▁maximilián	-14110
▁pronunciar	-14111
▁descubierto	-14112
▁porcentache	-14113
▁representau	-14114
▁conoixencias	-14115
▁propietarios	-14116
▁nacionalizato	-14117
▁precipitación	-14118
▁sedimentarias	-14119
.0	-14120
kr	-14121
mr	-14122
ctó	-14123
sic	-14124
tta	-14125
you	-14126
▁),	-14127
▁+0	-14128
▁sl	-14129
▁zu	-14130
!''.	-14131
adop	-14132
chab	-14133
esma	-14134
ezas	-14135
fals	-14136
ichi	-14137
ivan	-14138
izio	-14139
neth	-14140
oney	-14141
phil	-14142
pico	-14143
polo	-14144
thew	-14145
vaca	-14146
vino	-14147
èrra	-14148
▁dól	-14149
▁eur	-14150
▁exc	-14151
▁tus	-14152
gatas	-14153
lanta	-14154
losas	-14155
lotte	-14156
raten	-14157
tozal	-14158
▁<*''	-14159
▁acto	-14160
▁andy	-14161
▁años	-14162
▁bels	-14163
▁bril	-14164
▁buck	-14165
▁dixó	-14166
▁hait	-14167
▁iraq	-14168
▁jess	-14169
▁joel	-14170
▁kill	-14171
▁pera	-14172
▁rama	-14173
▁reco	-14174
▁rito	-14175
▁roch	-14176
▁scar	-14177
▁shir	-14178
▁susp	-14179
▁wins	-14180
dinast	-14181
elices	-14182
oratas	-14183
scient	-14184
tesgad	-14185
▁::00.	-14186
▁boris	-14187
▁chura	-14188
▁clado	-14189
▁desde	-14190
▁heavy	-14191
▁isaac	-14192
▁leigh	-14193
▁mirag	-14194
▁pinar	-14195
▁royen	-14196
cesvals	-14197
erosión	-14198
estudeo	-14199
euskara	-14200
pirenen	-14201
rupción	-14202
▁abaixo	-14203
▁baches	-14204
▁conmem	-14205
▁creixe	-14206
▁decide	-14207
▁estran	-14208
▁gotica	-14209
▁haigan	-14210
▁marcos	-14211
▁menera	-14212
▁musclo	-14213
▁museus	-14214
▁paises	-14215
▁poetas	-14216
▁pontif	-14217
▁riglos	-14218
▁sender	-14219
▁víctor	-14220
▁wright	-14221
internet	-14222
nacional	-14223
▁africán	-14224
▁capable	-14225
▁chulián	-14226
▁comesti	-14227
▁feminín	-14228
▁ferrovi	-14229
▁hadrián	-14230
▁henares	-14231
▁interno	-14232
▁mantene	-14233
▁morlans	-14234
▁neutral	-14235
▁paragua	-14236
▁penetra	-14237
▁portero	-14238
▁reducir	-14239
▁tambors	-14240
▁valleta	-14241
▁wallace	-14242
positivos	-14243
truccions	-14244
▁baixando	-14245
▁cantabro	-14246
▁capitals	-14247
▁complexa	-14248
▁diaspora	-14249
▁dobrucha	-14250
▁encluyen	-14251
▁enemigos	-14252
▁eslovaco	-14253
▁karabakh	-14254
▁rubielos	-14255
▁vasallos	-14256
▁cervantes	-14257
▁derivadas	-14258
▁empecipió	-14259
▁freqüenta	-14260
▁montblanc	-14261
▁neozeland	-14262
▁oclusivas	-14263
▁anarquista	-14264
▁archentino	-14265
▁disciplina	-14266
▁esportivos	-14267
▁festividat	-14268
▁literarias	-14269
▁matematica	-14270
▁montanyesa	-14271
▁castellanas	-14272
▁dependencia	-14273
▁etnografico	-14274
▁explicación	-14275
▁integración	-14276
▁pertenexient	-14277
▁practicament	-14278
▁significatos	-14279
▁modificacions	-14280
▁administrativo	-14281
dz	-14282
ли	-14283
amu	-14284
gir	-14285
gli	-14286
grá	-14287
kis	-14288
lux	-14289
nun	-14290
reu	-14291
sho	-14292
tah	-14293
zac	-14294
»),	-14295
▁0/	-14296
,000	-14297
arti	-14298
ases	-14299
cian	-14300
coli	-14301
egón	-14302
ició	-14303
ière	-14304
maur	-14305
onos	-14306
pués	-14307
quiu	-14308
rede	-14309
ráiz	-14310
ívar	-14311
▁ali	-14312
▁bou	-14313
▁fly	-14314
▁hut	-14315
▁ist	-14316
▁kab	-14317
▁mía	-14318
▁onu	-14319
▁raf	-14320
arbit	-14321
atina	-14322
cario	-14323
cerro	-14324
ceses	-14325
duras	-14326
feito	-14327
forte	-14328
garde	-14329
impos	-14330
light	-14331
podar	-14332
trich	-14333
zanas	-14334
zatos	-14335
▁aire	-14336
▁daba	-14337
▁deva	-14338
▁está	-14339
▁huer	-14340
▁lara	-14341
▁lord	-14342
▁mero	-14343
▁mult	-14344
▁noct	-14345
▁once	-14346
▁pesc	-14347
▁seúl	-14348
▁vaud	-14349
▁wals	-14350
aliaga	-14351
argent	-14352
beiter	-14353
dinand	-14354
enheim	-14355
grafia	-14356
intesi	-14357
invent	-14358
mosfer	-14359
olaria	-14360
tercer	-14361
tienne	-14362
tizato	-14363
▁(00),	-14364
▁andes	-14365
▁baker	-14366
▁camin	-14367
▁carra	-14368
▁cukor	-14369
▁donat	-14370
▁eslav	-14371
▁first	-14372
▁isola	-14373
▁milan	-14374
▁mitos	-14375
▁obsta	-14376
▁paras	-14377
▁reinó	-14378
▁sinta	-14379
▁trobe	-14380
▁velas	-14381
▁voces	-14382
▁yebra	-14383
-000000	-14384
ucristo	-14385
uragués	-14386
▁00-00,	-14387
▁astero	-14388
▁bernad	-14389
▁bordas	-14390
▁confes	-14391
▁cupula	-14392
▁diaple	-14393
▁dioces	-14394
▁dólars	-14395
▁entero	-14396
▁esquia	-14397
▁febles	-14398
▁gloria	-14399
▁hudson	-14400
▁libels	-14401
▁mental	-14402
▁nativa	-14403
▁pascal	-14404
▁placha	-14405
▁postal	-14406
▁puents	-14407
▁rector	-14408
▁refusó	-14409
▁ruinas	-14410
▁scenas	-14411
▁senato	-14412
▁sieste	-14413
▁solano	-14414
▁suposó	-14415
▁teixiu	-14416
ainielle	-14417
columbia	-14418
fraxinus	-14419
panorama	-14420
▁ansotán	-14421
▁burgund	-14422
▁captura	-14423
▁circums	-14424
▁computa	-14425
▁concord	-14426
▁creyeba	-14427
▁critica	-14428
▁crovata	-14429
▁decenas	-14430
▁euskara	-14431
▁herráiz	-14432
▁history	-14433
▁interes	-14434
▁muderno	-14435
▁méthode	-14436
▁springs	-14437
ambiental	-14438
astronomo	-14439
▁arbustos	-14440
▁asociato	-14441
▁charrato	-14442
▁filochen	-14443
▁tenerife	-14444
eslovaquia	-14445
▁bacterias	-14446
▁executato	-14447
▁indicador	-14448
▁lauragués	-14449
▁localment	-14450
▁marsiella	-14451
▁plantilla	-14452
▁preterito	-14453
▁profesión	-14454
▁soberanía	-14455
▁turquicas	-14456
▁aplicación	-14457
▁carreteras	-14458
▁provinient	-14459
▁indoeuropea	-14460
▁morfolochía	-14461
▁privilechio	-14462
▁cheograficas	-14463
▁indoeuropeas	-14464
▁fortificación	-14465
▁|	-14466
-0,	-14467
0),	-14468
alp	-14469
cía	-14470
kee	-14471
oïl	-14472
pui	-14473
sis	-14474
tef	-14475
wel	-14476
▁py	-14477
▁vé	-14478
eble	-14479
faix	-14480
falo	-14481
fern	-14482
hein	-14483
itou	-14484
jada	-14485
obar	-14486
omía	-14487
repl	-14488
rios	-14489
sous	-14490
tins	-14491
ulin	-14492
vard	-14493
ñana	-14494
▁ano	-14495
▁cár	-14496
▁dep	-14497
▁gat	-14498
▁glo	-14499
▁guz	-14500
▁had	-14501
▁jag	-14502
▁lop	-14503
▁spa	-14504
▁tut	-14505
▁xer	-14506
▁yod	-14507
acias	-14508
ansot	-14509
avión	-14510
etano	-14511
fonos	-14512
glise	-14513
ignan	-14514
illon	-14515
inars	-14516
insta	-14517
metro	-14518
quila	-14519
sberg	-14520
tamar	-14521
titos	-14522
ualla	-14523
ubert	-14524
▁asso	-14525
▁asum	-14526
▁boto	-14527
▁cauc	-14528
▁cura	-14529
▁eras	-14530
▁esvi	-14531
▁exac	-14532
▁joão	-14533
▁vola	-14534
bottom	-14535
chiata	-14536
ciudad	-14537
estima	-14538
euskal	-14539
ompson	-14540
surrey	-14541
▁abajo	-14542
▁entom	-14543
▁griff	-14544
▁hesen	-14545
▁hidra	-14546
▁lamin	-14547
▁modal	-14548
▁moral	-14549
▁pacif	-14550
▁petit	-14551
▁receb	-14552
▁recta	-14553
▁reper	-14554
▁vener	-14555
▁vichy	-14556
emplegó	-14557
virchen	-14558
▁arturo	-14559
▁bengal	-14560
▁centra	-14561
▁climas	-14562
▁codony	-14563
▁disuel	-14564
▁jiloca	-14565
▁nueitz	-14566
▁perfum	-14567
▁piensa	-14568
▁proxim	-14569
▁repeti	-14570
▁senyor	-14571
escriben	-14572
hespital	-14573
ologique	-14574
rodomest	-14575
▁aumenta	-14576
▁avenita	-14577
▁billetz	-14578
▁cerimon	-14579
▁chuntas	-14580
▁contrim	-14581
▁demandó	-14582
▁dixando	-14583
▁eventos	-14584
▁kenneth	-14585
▁rolland	-14586
▁sureste	-14587
▁tributo	-14588
▁vicient	-14589
orribagor	-14590
▁africato	-14591
▁alimento	-14592
▁aquellas	-14593
▁asegurar	-14594
▁celtiber	-14595
▁cheologo	-14596
▁colaboró	-14597
▁cristals	-14598
▁electrón	-14599
▁esencial	-14600
▁estudeyo	-14601
▁formatas	-14602
▁liberals	-14603
▁organiza	-14604
▁organizó	-14605
▁vladimir	-14606
▁cantautor	-14607
▁comandant	-14608
▁conoixeba	-14609
▁enguerada	-14610
▁federatos	-14611
▁melbourne	-14612
▁montenegr	-14613
▁paisaches	-14614
▁pareixida	-14615
▁primitivo	-14616
▁provenzal	-14617
▁revueltas	-14618
despoblatos	-14619
▁bundesliga	-14620
▁carrascals	-14621
▁casablanca	-14622
▁conoixidas	-14623
▁decoración	-14624
▁definitiva	-14625
▁situacions	-14626
▁villamayor	-14627
bundesarchiv	-14628
▁conquiestas	-14629
▁elaboración	-14630
▁informatica	-14631
▁provenients	-14632
▁relacionada	-14633
▁torreciella	-14634
▁vriolinista	-14635
▁cheograficos	-14636
▁conquiridors	-14637
▁proposicions	-14638
▁conoiximientos	-14639
▁particularment	-14640
éu	-14641
ан	-14642
clé	-14643
hin	-14644
iya	-14645
mov	-14646
tit	-14647
xer	-14648
▁gy	-14649
agre	-14650
alth	-14651
azar	-14652
corn	-14653
dans	-14654
from	-14655
icto	-14656
intr	-14657
inés	-14658
oleu	-14659
plat	-14660
rias	-14661
roma	-14662
çois	-14663
▁auf	-14664
▁bug	-14665
▁ecu	-14666
▁ges	-14667
▁lub	-14668
▁naf	-14669
▁neb	-14670
▁say	-14671
▁thé	-14672
▁zan	-14673
anata	-14674
avoir	-14675
eming	-14676
ianus	-14677
ichio	-14678
imeno	-14679
itals	-14680
jares	-14681
reros	-14682
ricos	-14683
ricán	-14684
tadas	-14685
tesis	-14686
urrea	-14687
xviii	-14688
▁00''	-14689
▁asun	-14690
▁bard	-14691
▁cria	-14692
▁fair	-14693
▁grat	-14694
▁habs	-14695
▁inoc	-14696
▁kirk	-14697
▁kurt	-14698
▁open	-14699
▁pent	-14700
▁traf	-14701
▁vigo	-14702
▁vino	-14703
aprove	-14704
extend	-14705
isions	-14706
omobil	-14707
poesía	-14708
vinyón	-14709
▁acred	-14710
▁baïsa	-14711
▁blood	-14712
▁boira	-14713
▁bolog	-14714
▁casta	-14715
▁chuez	-14716
▁cotón	-14717
▁cucho	-14718
▁esquí	-14719
▁forno	-14720
▁galín	-14721
▁metió	-14722
▁monof	-14723
▁penta	-14724
▁pidal	-14725
▁stern	-14726
▁tonel	-14727
▁viana	-14728
▁vivas	-14729
▁women	-14730
▁zapat	-14731
▁ávila	-14732
aparato	-14733
endario	-14734
ficción	-14735
omorfia	-14736
tenient	-14737
▁accent	-14738
▁adulto	-14739
▁arribó	-14740
▁banato	-14741
▁barros	-14742
▁cartas	-14743
▁dureza	-14744
▁fontan	-14745
▁iguals	-14746
▁maella	-14747
▁peruán	-14748
▁platín	-14749
▁puntas	-14750
▁rutens	-14751
▁senyal	-14752
▁taifas	-14753
▁tigris	-14754
▁toscar	-14755
▁urraca	-14756
articlos	-14757
consello	-14758
emplegar	-14759
kentucky	-14760
▁0000''.	-14761
▁anunció	-14762
▁augusta	-14763
▁barroca	-14764
▁cistels	-14765
▁crimens	-14766
▁equador	-14767
▁hepburn	-14768
▁lombard	-14769
▁parcial	-14770
▁spencer	-14771
▁traslad	-14772
molimento	-14773
▁amanatos	-14774
▁ambients	-14775
▁anglosax	-14776
▁ansotano	-14777
▁chardins	-14778
▁clasicos	-14779
▁claustro	-14780
▁colorado	-14781
▁concurso	-14782
▁conexión	-14783
▁deutsche	-14784
▁editores	-14785
▁esfender	-14786
▁espectro	-14787
▁fenomens	-14788
▁graficas	-14789
▁missouri	-14790
▁priorato	-14791
▁rebelión	-14792
▁resistir	-14793
▁testimon	-14794
▁vehiclos	-14795
▁voluntat	-14796
biblioteca	-14797
cartulario	-14798
▁bailarina	-14799
▁carrascal	-14800
▁chudaísmo	-14801
▁divisible	-14802
▁kilometro	-14803
▁reducción	-14804
▁sendicato	-14805
▁sobrarben	-14806
▁buixaruelo	-14807
▁colombiano	-14808
▁documental	-14809
▁gallocanta	-14810
▁montanyoso	-14811
▁mozambique	-14812
▁pareixitos	-14813
▁pontevedra	-14814
▁proporción	-14815
▁reconoixen	-14816
▁toponimica	-14817
▁universals	-14818
▁valenciano	-14819
▁0000-0000).	-14820
▁chesucristo	-14821
▁descendient	-14822
▁electronico	-14823
▁mercenarios	-14824
▁sustituindo	-14825
▁(0000-0000):	-14826
▁considerando	-14827
▁estendillato	-14828
▁probabilidat	-14829
▁qualsiquiera	-14830
▁scientificas	-14831
▁contaminación	-14832
▁noroccidental	-14833
▁prenunciación	-14834
▁altoaragonesas	-14835
%)	-14836
iñ	-14837
yi	-14838
çà	-14839
öl	-14840
ăr	-14841
bap	-14842
chy	-14843
egi	-14844
etx	-14845
lax	-14846
mau	-14847
sou	-14848
vau	-14849
viz	-14850
ván	-14851
▁tú	-14852
aces	-14853
agga	-14854
aldo	-14855
aram	-14856
cetz	-14857
cius	-14858
cona	-14859
crim	-14860
docu	-14861
enne	-14862
ever	-14863
fona	-14864
icel	-14865
ilea	-14866
inst	-14867
iowa	-14868
isbn	-14869
khan	-14870
lynx	-14871
mala	-14872
nail	-14873
ordi	-14874
rien	-14875
turn	-14876
witz	-14877
évry	-14878
▁''0	-14879
▁due	-14880
▁ola	-14881
▁wes	-14882
acons	-14883
albor	-14884
atrib	-14885
chaft	-14886
emens	-14887
iende	-14888
islau	-14889
lanza	-14890
ollas	-14891
phyta	-14892
ranza	-14893
tasio	-14894
terra	-14895
▁asim	-14896
▁bier	-14897
▁fonz	-14898
▁guin	-14899
▁idey	-14900
▁isab	-14901
▁lope	-14902
▁meca	-14903
▁narr	-14904
▁page	-14905
▁taur	-14906
▁thor	-14907
anyata	-14908
atelli	-14909
capaci	-14910
chales	-14911
charra	-14912
chuela	-14913
douard	-14914
erbury	-14915
eyador	-14916
icelli	-14917
riello	-14918
romanz	-14919
ública	-14920
▁apede	-14921
▁badal	-14922
▁berro	-14923
▁cabri	-14924
▁chaén	-14925
▁clint	-14926
▁court	-14927
▁eletr	-14928
▁estes	-14929
▁felix	-14930
▁gaita	-14931
▁gavín	-14932
▁julie	-14933
▁marta	-14934
▁minas	-14935
▁nasal	-14936
▁ocian	-14937
▁peyor	-14938
▁phoen	-14939
▁prous	-14940
▁relig	-14941
[...]
